<unk>	0
<s>	0
</s>	0
,	-2.73557
▁the	-2.98069
.	-3.28927
▁of	-3.60552
▁and	-3.9421
▁a	-3.95999
▁to	-3.97278
▁in	-4.23815
▁was	-4.43499
▁that	-4.60177
▁“	-4.64206
▁he	-4.66149
▁had	-4.76745
▁his	-4.7735
▁is	-4.78835
;	-4.82798
s	-4.85373
▁which	-4.95878
▁it	-4.99327
-	-5.03587
▁	-5.04174
▁with	-5.09339
▁on	-5.16359
▁not	-5.26211
▁The	-5.27182
’	-5.31055
▁at	-5.33152
▁I	-5.39615
▁you	-5.49008
▁this	-5.50115
▁him	-5.50341
.”	-5.51644
▁one	-5.53521
▁for	-5.54971
▁as	-5.55246
▁have	-5.58291
▁He	-5.58634
▁her	-5.64378
▁be	-5.7098
▁who	-5.71553
!	-5.74093
▁from	-5.74747
▁by	-5.76027
▁are	-5.85511
▁all	-5.85704
▁man	-5.90404
▁an	-5.90735
▁there	-5.95336
▁were	-5.98221
▁said	-5.99629
▁she	-6.07147
?	-6.09971
▁no	-6.10607
▁but	-6.12675
ing	-6.15743
▁It	-6.16064
▁been	-6.16638
:	-6.17802
▁they	-6.22543
ed	-6.29261
▁Marius	-6.30023
?”	-6.31941
—	-6.367
▁will	-6.40012
,”	-6.40034
▁their	-6.40309
▁me	-6.42681
▁Jean	-6.42711
!”	-6.44124
▁more	-6.47994
▁Valjean	-6.4807
▁A	-6.4912
▁two	-6.49202
▁himself	-6.5018
▁has	-6.51452
▁them	-6.53431
▁M	-6.54482
▁so	-6.54515
▁when	-6.54631
▁would	-6.54807
▁what	-6.55794
▁my	-6.59222
▁out	-6.59568
:—	-6.59686
▁into	-6.603
▁Cosette	-6.6065
▁we	-6.61739
▁did	-6.6236
▁This	-6.62905
▁_	-6.62941
▁like	-6.64966
▁or	-6.66146
▁up	-6.66762
▁little	-6.67933
▁very	-6.6841
▁other	-6.68582
▁than	-6.72358
▁old	-6.74438
▁its	-6.77008
▁do	-6.81656
▁In	-6.84096
▁made	-6.84613
▁time	-6.85302
I	-6.85357
▁these	-6.87318
▁She	-6.88994
t	-6.90603
TER	-6.91381
d	-6.91452
▁good	-6.91607
▁your	-6.93123
▁only	-6.9323
▁C	-6.93611
▁some	-6.95312
▁those	-6.96621
▁without	-6.97536
▁day	-6.98042
▁could	-6.98374
▁There	-6.99784
▁And	-7.00382
▁then	-7.00774
▁Rue	-7.01437
▁de	-7.02963
▁about	-7.06037
▁nothing	-7.06176
▁They	-7.08173
▁say	-7.11085
▁men	-7.12214
▁over	-7.1285
▁moment	-7.14729
▁first	-7.15639
▁any	-7.1898
▁hand	-7.19156
▁eyes	-7.20372
▁see	-7.2045
▁should	-7.20468
▁am	-7.21595
▁Thénardier	-7.21934
▁us	-7.2212
▁know	-7.22162
▁through	-7.22828
▁must	-7.2475
▁At	-7.24972
▁where	-7.25291
▁same	-7.26523
▁thought	-7.28976
▁even	-7.30617
▁great	-7.30623
▁door	-7.31368
▁still	-7.32031
HAP	-7.32218
▁head	-7.32493
▁under	-7.33316
▁upon	-7.33375
▁child	-7.33482
▁before	-7.33501
e	-7.3435
▁well	-7.35457
▁if	-7.35654
▁What	-7.35697
▁just	-7.36474
▁come	-7.3712
▁once	-7.37273
▁sort	-7.37584
▁being	-7.38515
▁Javert	-7.38995
▁again	-7.40996
▁now	-7.41269
▁longer	-7.42645
▁name	-7.43906
▁back	-7.44099
▁three	-7.44371
▁here	-7.45253
▁can	-7.45264
▁way	-7.453
▁One	-7.45313
▁woman	-7.45988
▁night	-7.46452
▁right	-7.46621
▁You	-7.46718
▁light	-7.46942
▁life	-7.47137
▁went	-7.47252
▁people	-7.47262
▁go	-7.47818
▁after	-7.48139
▁young	-7.48197
▁seemed	-7.49379
▁took	-7.49922
▁Paris	-7.50112
▁house	-7.50318
▁That	-7.50404
▁each	-7.50406
▁long	-7.52428
▁called	-7.54258
▁All	-7.54536
▁seen	-7.54633
ly	-7.54854
▁father	-7.5515
▁place	-7.56542
,—	-7.57804
▁never	-7.58249
▁But	-7.59551
▁every	-7.59849
▁years	-7.60347
▁left	-7.62089
▁such	-7.62445
▁though	-7.62724
▁whom	-7.62926
▁point	-7.64213
▁voice	-7.64232
▁make	-7.64414
▁whole	-7.65382
▁air	-7.65523
▁God	-7.65914
y	-7.66059
▁might	-7.66348
▁As	-7.6648
▁something	-7.66732
▁own	-7.67304
▁street	-7.67789
▁most	-7.6801
▁shall	-7.68246
▁love	-7.68247
▁last	-7.69407
▁much	-7.69424
▁turned	-7.69523
_	-7.71088
▁four	-7.71123
▁face	-7.71359
▁When	-7.72011
What	-7.72045
▁almost	-7.72564
▁thing	-7.72587
▁take	-7.72643
▁may	-7.73149
▁order	-7.73247
▁Saint	-7.73919
▁On	-7.74244
▁our	-7.74674
▁replied	-7.75702
▁passed	-7.76143
▁always	-7.76686
▁felt	-7.77336
▁does	-7.7783
▁soul	-7.78294
▁hundred	-7.78336
▁Gavroche	-7.78337
▁having	-7.7836
▁down	-7.78369
▁His	-7.78433
▁away	-7.78534
▁Then	-7.78705
▁word	-7.7897
_,	-7.79175
▁against	-7.79381
▁off	-7.79437
▁between	-7.79684
S	-7.80222
▁going	-7.80964
▁towards	-7.81109
▁barricade	-7.81183
▁side	-7.81242
▁things	-7.81406
▁wall	-7.8162
▁taken	-7.81901
▁We	-7.8237
▁Fauchelevent	-7.82761
▁put	-7.84424
▁saw	-7.84683
▁fact	-7.84863
▁francs	-7.84867
▁hour	-7.849
▁few	-7.85588
n	-7.85857
▁Madeleine	-7.86292
▁heard	-7.86452
▁No	-7.86773
▁found	-7.86896
▁behind	-7.87018
▁came	-7.87066
▁certain	-7.88434
▁OF	-7.88487
▁heart	-7.88981
▁poor	-7.89142
THE	-7.90478
▁too	-7.90568
▁black	-7.90812
▁everything	-7.91095
▁To	-7.91336
You	-7.91717
▁Bishop	-7.92629
▁end	-7.93978
P	-7.94903
The	-7.95902
▁near	-7.9602
▁how	-7.96254
▁bed	-7.96264
▁entered	-7.96343
▁another	-7.96984
▁because	-7.97369
▁themselves	-7.97745
▁words	-7.98237
”	-7.98468
▁Enjolras	-7.98999
the	-7.99193
▁evening	-7.99418
▁THE	-7.99516
▁white	-8.00238
a	-8.00722
▁dead	-8.0151
▁remained	-8.0193
▁work	-8.01948
▁These	-8.03009
▁Gillenormand	-8.03407
▁garden	-8.03459
▁morning	-8.03566
▁began	-8.04416
▁set	-8.04884
▁Monsieur	-8.05216
▁full	-8.05228
▁mind	-8.05454
▁mother	-8.06781
▁table	-8.06941
▁Madame	-8.07736
▁itself	-8.07987
▁hands	-8.08283
▁children	-8.08391
▁also	-8.0883
▁CHA	-8.09519
▁done	-8.09585
▁open	-8.09705
▁death	-8.09749
▁opened	-8.10356
es	-8.10474
▁terrible	-8.10656
▁become	-8.10878
▁five	-8.11065
▁think	-8.11077
▁person	-8.11139
▁let	-8.1124
▁If	-8.11371
▁girl	-8.11395
▁S	-8.11504
▁la	-8.11876
▁nor	-8.12052
▁herself	-8.13008
_.	-8.13234
▁large	-8.13353
▁half	-8.13481
▁get	-8.1373
▁many	-8.1456
▁anything	-8.15374
▁while	-8.15401
▁human	-8.15536
▁world	-8.17179
▁feet	-8.17352
It	-8.18028
A	-8.18131
▁alone	-8.18314
▁second	-8.19096
▁since	-8.1929
▁Fantine	-8.19325
▁far	-8.19392
▁room	-8.19713
▁water	-8.19812
▁fell	-8.19821
▁six	-8.20181
▁arms	-8.20818
▁‘	-8.21777
▁matter	-8.22703
▁idea	-8.23106
▁beneath	-8.23392
▁added	-8.2351
▁both	-8.24137
▁already	-8.25515
▁thousand	-8.25869
▁whose	-8.26258
▁o	-8.26829
▁glance	-8.27613
▁exclaimed	-8.28205
▁returned	-8.28852
▁round	-8.29283
▁Courfeyrac	-8.29325
▁possible	-8.29327
That	-8.29701
▁part	-8.29993
▁front	-8.30822
▁earth	-8.30941
▁sometimes	-8.30978
▁days	-8.31487
▁corner	-8.31526
r	-8.31668
▁grave	-8.32469
▁window	-8.3249
▁police	-8.3326
▁case	-8.33498
er	-8.33842
▁France	-8.3385
▁above	-8.34412
▁fire	-8.35301
▁le	-8.35309
▁low	-8.35792
▁held	-8.35928
▁knew	-8.36187
▁twenty	-8.36233
th	-8.36456
▁give	-8.36563
▁resumed	-8.36778
▁speak	-8.37656
▁true	-8.38039
▁don	-8.38708
▁Let	-8.39039
▁cold	-8.39192
▁age	-8.39412
Yes	-8.39969
▁manner	-8.40315
▁saying	-8.40936
▁Jondrette	-8.40945
▁pass	-8.419
▁lost	-8.4231
▁became	-8.42312
▁raised	-8.4236
▁tell	-8.42746
▁later	-8.42972
▁Father	-8.43048
▁yet	-8.43585
▁women	-8.44275
clock	-8.44543
▁[	-8.45456
▁rather	-8.45529
▁stood	-8.45536
▁reached	-8.45552
▁iron	-8.45883
▁read	-8.46076
▁forth	-8.4626
▁sir	-8.46395
▁hair	-8.46557
▁(	-8.46663
▁caught	-8.47474
▁silence	-8.47493
▁following	-8.48199
▁sewer	-8.48812
▁less	-8.49328
▁beheld	-8.4952
▁appeared	-8.49576
▁among	-8.49648
▁placed	-8.49847
m	-8.50231
▁turn	-8.5039
▁thus	-8.5039
▁form	-8.50473
▁small	-8.50808
▁wine	-8.51458
▁.	-8.5152
▁within	-8.51934
▁For	-8.52481
▁des	-8.52919
▁shadow	-8.52935
▁myself	-8.52969
▁look	-8.5327
▁joy	-8.53619
▁stone	-8.5368
▁making	-8.53714
▁close	-8.53928
▁want	-8.54499
▁l	-8.54971
▁paper	-8.55058
▁road	-8.55111
▁sight	-8.55117
▁ground	-8.55462
Ah	-8.55566
▁happy	-8.55798
▁hours	-8.56519
▁present	-8.56801
▁short	-8.5685
▁battle	-8.57232
▁gave	-8.57244
▁B	-8.57287
▁closed	-8.57391
▁lay	-8.57683
▁convent	-8.5797
in	-8.57978
▁fall	-8.57989
▁fine	-8.58006
▁foot	-8.58013
▁eye	-8.58257
▁presence	-8.58713
▁darkness	-8.58724
▁un	-8.5902
▁understand	-8.59292
▁live	-8.59395
▁law	-8.59419
▁asked	-8.59603
▁question	-8.59888
▁told	-8.59944
▁re	-8.59982
And	-8.60065
▁state	-8.60143
▁1	-8.60276
▁Louis	-8.60438
▁F	-8.60444
▁brought	-8.60969
▁seized	-8.61
▁course	-8.6102
▁new	-8.61065
▁looked	-8.6115
▁letter	-8.61605
▁find	-8.61629
▁money	-8.6173
▁pocket	-8.61779
▁Napoleon	-8.61803
▁chamber	-8.61928
He	-8.6216
re	-8.62206
▁An	-8.62223
it	-8.62369
▁reader	-8.62549
▁sound	-8.62934
▁times	-8.63045
▁smile	-8.63186
▁arm	-8.63364
▁red	-8.63606
▁rest	-8.63959
▁nature	-8.64221
▁grandfather	-8.64885
▁quarter	-8.64919
▁rose	-8.64979
▁war	-8.65167
▁du	-8.65288
▁English	-8.65625
Monsieur	-8.65665
▁taking	-8.65668
▁given	-8.6579
on	-8.65937
▁necessary	-8.66441
▁suddenly	-8.66448
▁century	-8.66456
▁better	-8.66467
▁daughter	-8.6651
▁continued	-8.66543
▁d	-8.66543
Well	-8.66632
▁along	-8.66792
▁D	-8.6708
▁coat	-8.67879
▁knows	-8.67941
▁society	-8.68075
day	-8.68219
▁grand	-8.68412
▁public	-8.68781
▁cried	-8.68884
▁cast	-8.68898
▁direction	-8.68962
▁others	-8.69278
▁sun	-8.69518
▁perceived	-8.69792
▁ancient	-8.698
▁return	-8.6989
▁ever	-8.7042
▁visible	-8.70586
▁gazed	-8.70629
▁around	-8.70725
▁Mother	-8.70729
▁formed	-8.70828
▁streets	-8.70891
▁How	-8.71222
▁able	-8.71276
▁floor	-8.71291
▁dark	-8.71373
▁beginning	-8.7147
▁seated	-8.71535
▁bottom	-8.72302
▁So	-8.72932
▁die	-8.72955
▁mysterious	-8.7308
is	-8.73783
▁call	-8.74608
o	-8.74807
▁country	-8.74825
▁means	-8.7522
▁enter	-8.75448
▁P	-8.75703
▁galleys	-8.75856
There	-8.75954
▁doubt	-8.76176
▁drew	-8.76577
▁single	-8.76579
▁laid	-8.76591
▁From	-8.76776
▁beside	-8.7685
▁town	-8.7691
▁ten	-8.77197
▁strange	-8.77351
▁charming	-8.77483
▁trees	-8.78234
▁except	-8.78352
▁Leblanc	-8.78365
▁melancholy	-8.78388
▁French	-8.78443
▁filled	-8.78558
▁sister	-8.78564
▁appearance	-8.78581
▁year	-8.78592
▁sous	-8.79101
▁neither	-8.79318
▁arrived	-8.79322
M	-8.79378
▁broken	-8.79428
al	-8.79482
▁Who	-8.79802
▁least	-8.80197
▁cannot	-8.80233
ll	-8.80637
and	-8.80796
▁Here	-8.80913
▁profound	-8.81098
▁perhaps	-8.81225
▁force	-8.8137
▁hear	-8.82063
▁probably	-8.82076
▁cut	-8.82084
▁paid	-8.82145
▁says	-8.82309
▁bad	-8.82371
▁lighted	-8.827
▁blood	-8.82935
▁BO	-8.82962
▁beautiful	-8.82999
▁together	-8.83014
▁shadows	-8.83035
▁escape	-8.83046
▁received	-8.83061
▁followed	-8.83069
to	-8.8315
)	-8.83492
No	-8.83868
▁Waterloo	-8.8397
▁living	-8.83976
▁disappeared	-8.83982
▁comes	-8.84211
▁past	-8.84315
▁gloomy	-8.8495
▁movement	-8.85143
▁Why	-8.85397
▁convict	-8.85539
▁step	-8.8554
by	-8.85772
▁depths	-8.86107
▁mouth	-8.86139
▁brother	-8.86143
▁t	-8.86145
▁After	-8.86152
▁makes	-8.86354
room	-8.86655
▁whether	-8.86861
▁history	-8.86915
▁need	-8.86967
▁truth	-8.87106
▁bit	-8.873
▁II	-8.87367
▁post	-8.87779
▁hideous	-8.87814
▁carried	-8.87859
▁IN	-8.87868
▁during	-8.87869
▁happiness	-8.87874
▁outside	-8.87895
▁recognized	-8.87943
▁gone	-8.87986
E	-8.88533
▁fear	-8.88846
▁hardly	-8.88875
▁bread	-8.88951
▁fallen	-8.88957
OK	-8.89081
▁epoch	-8.89084
▁often	-8.89212
▁horse	-8.89303
▁wish	-8.89465
▁remain	-8.89773
▁family	-8.8986
▁immense	-8.89886
▁evil	-8.89893
▁caused	-8.89966
▁lived	-8.90106
▁sword	-8.90117
▁chance	-8.90232
▁carriage	-8.90415
▁Ah	-8.90515
▁Now	-8.90554
▁bourgeois	-8.90567
that	-8.90667
▁piece	-8.90962
▁effect	-8.91005
morrow	-8.91605
▁known	-8.91702
▁yourself	-8.91931
▁walls	-8.91952
▁Nothing	-8.92287
▁ago	-8.92307
▁wife	-8.92953
▁pretty	-8.92976
▁mingled	-8.93001
▁V	-8.93128
▁simple	-8.93128
▁conscience	-8.93252
▁breath	-8.93258
▁coming	-8.93317
us	-8.93701
▁impossible	-8.94007
▁Nevertheless	-8.94032
▁however	-8.94044
▁IV	-8.94094
▁seven	-8.9428
▁passing	-8.94302
▁spot	-8.94355
▁months	-8.94502
▁girls	-8.94682
▁steps	-8.94882
▁future	-8.95068
▁duty	-8.95069
▁struck	-8.95095
▁army	-8.95185
▁T	-8.95287
▁attention	-8.95358
▁sur	-8.96028
▁midst	-8.96143
▁quite	-8.96229
▁Her	-8.97226
▁houses	-8.97226
▁enough	-8.97231
▁liberty	-8.97233
▁body	-8.97268
▁III	-8.97417
▁candle	-8.976
▁teeth	-8.98329
▁hat	-8.98335
▁until	-8.98353
▁sign	-8.98562
▁Do	-8.98609
▁bent	-8.9867
▁heaven	-8.98713
▁Oh	-8.98713
▁ideas	-8.98805
▁use	-8.99062
▁social	-8.99437
▁third	-8.9946
▁Pontmercy	-8.99468
▁pay	-8.99733
▁distance	-8.99804
▁TO	-8.99959
an	-9.00328
▁further	-9.00566
▁Moreover	-9.00591
▁served	-9.00669
▁city	-9.00672
▁sleep	-9.00676
▁nearly	-9.00706
▁produced	-9.00727
▁why	-9.00756
▁instant	-9.00895
▁Mademoiselle	-9.01041
▁loved	-9.01106
▁frightful	-9.01658
▁Combeferre	-9.01702
▁Montparnasse	-9.01703
▁Mabeuf	-9.01726
▁high	-9.01795
▁covered	-9.01841
▁occasion	-9.02073
▁husband	-9.02086
▁secret	-9.0213
▁fellow	-9.02136
▁seems	-9.02252
▁soon	-9.02261
▁singular	-9.02857
▁thirty	-9.02876
▁understood	-9.02878
▁wind	-9.02882
▁moments	-9.02956
▁eight	-9.03027
▁line	-9.0309
▁gaze	-9.03205
▁peace	-9.03755
▁pale	-9.03827
▁laugh	-9.04004
▁slowly	-9.04019
My	-9.04139
▁allowed	-9.04222
▁brow	-9.04295
▁square	-9.04457
shop	-9.04745
]	-9.05024
But	-9.05137
▁book	-9.05165
▁formidable	-9.05195
AND	-9.05571
▁minutes	-9.0565
▁porter	-9.05717
▁stranger	-9.05751
▁address	-9.06204
▁Gutenberg	-9.06381
▁slang	-9.06406
▁really	-9.06421
▁rendered	-9.06451
▁hold	-9.06716
▁doctor	-9.06897
▁home	-9.0716
▁uttered	-9.07697
▁walked	-9.0772
▁My	-9.07736
▁tone	-9.07943
▁prison	-9.08001
▁subject	-9.08063
▁watch	-9.08118
▁revolution	-9.08217
▁flowers	-9.08271
▁hope	-9.08337
he	-9.0838
▁cross	-9.08404
▁ran	-9.08651
▁unknown	-9.08805
▁However	-9.08812
▁halted	-9.08882
▁below	-9.08927
▁mayor	-9.08942
How	-9.08959
▁sad	-9.08962
▁knees	-9.09139
▁deal	-9.09192
▁O	-9.09549
▁gun	-9.09559
le	-9.09586
▁reply	-9.09866
▁vague	-9.09985
ponine	-9.10013
▁fifteen	-9.1002
▁obliged	-9.10039
▁enormous	-9.10068
▁forty	-9.1013
ies	-9.1023
▁boulevard	-9.1054
▁care	-9.11004
ness	-9.11032
▁progress	-9.11055
de	-9.11064
l	-9.11283
▁sombre	-9.11292
▁succeeded	-9.11318
▁glass	-9.11362
▁souls	-9.11468
▁forest	-9.11685
▁top	-9.11762
▁La	-9.11929
▁thoughts	-9.12003
▁windows	-9.12085
▁Some	-9.12515
▁blue	-9.12617
▁killed	-9.12634
▁Project	-9.12701
▁presented	-9.12832
▁either	-9.13004
▁horrible	-9.13838
▁fixed	-9.13838
▁existed	-9.13939
▁eat	-9.14077
▁spoke	-9.1419
▁leave	-9.14495
▁rich	-9.14669
▁Magloire	-9.15134
▁perfectly	-9.15168
▁thrust	-9.1522
▁E	-9.1534
you	-9.15512
▁cannon	-9.15521
▁pavement	-9.15709
▁heads	-9.15714
▁fault	-9.15903
▁doing	-9.16128
▁serious	-9.16437
▁sky	-9.16437
▁according	-9.1648
In	-9.16501
▁Thus	-9.16526
▁view	-9.16602
▁big	-9.16641
▁Grantaire	-9.16666
▁dressed	-9.16699
Do	-9.16826
▁hole	-9.16864
▁son	-9.16889
▁power	-9.16898
▁Revolution	-9.17035
▁prisoner	-9.17085
ve	-9.17131
▁becomes	-9.17219
ion	-9.1733
▁terror	-9.17342
▁blind	-9.1756
▁motionless	-9.17785
▁touched	-9.17879
▁aside	-9.18067
▁noise	-9.18144
▁burst	-9.18202
est	-9.1875
▁cry	-9.18995
▁deserted	-9.19164
▁justice	-9.19218
▁asleep	-9.1923
▁standing	-9.19258
▁concealed	-9.19271
▁certainly	-9.19286
▁rain	-9.19595
▁feel	-9.19598
▁spring	-9.19799
▁real	-9.20108
▁fashion	-9.20223
ER	-9.20282
▁coffin	-9.20504
▁destiny	-9.20505
▁composed	-9.20511
▁begun	-9.20516
▁vast	-9.20519
▁Montfermeil	-9.20537
▁forced	-9.20727
▁walk	-9.20829
▁despair	-9.20888
▁speaking	-9.209
return	-9.20998
▁neck	-9.21126
▁service	-9.21142
▁crime	-9.21223
——	-9.21292
▁honest	-9.21836
▁shouted	-9.21945
▁paused	-9.21954
▁forms	-9.22113
▁entering	-9.22203
▁sure	-9.22539
▁chimney	-9.22731
▁By	-9.22809
able	-9.22903
en	-9.23039
▁free	-9.23141
▁recognize	-9.23191
▁church	-9.23244
▁gentle	-9.23283
▁else	-9.23296
▁silver	-9.23301
▁gentleman	-9.23312
▁latter	-9.23319
▁resembled	-9.23346
▁Bossuet	-9.23366
▁June	-9.23401
▁shoes	-9.23417
▁wore	-9.23466
▁Where	-9.23478
▁account	-9.23893
▁gate	-9.24034
▁thou	-9.24358
▁wild	-9.24707
▁written	-9.24729
▁misery	-9.24731
▁While	-9.2476
▁winter	-9.24763
▁haste	-9.24841
▁drawing	-9.24855
▁reason	-9.25066
Come	-9.25241
▁bear	-9.25245
▁thinking	-9.25308
▁s	-9.25404
▁creature	-9.25441
▁mass	-9.2577
▁ask	-9.2581
▁attack	-9.25843
▁ideal	-9.2587
▁letters	-9.26111
▁traversed	-9.26224
▁listened	-9.26289
▁amid	-9.26319
▁paces	-9.26595
▁got	-9.26692
▁prevent	-9.26879
▁race	-9.2697
▁bring	-9.27026
▁chair	-9.27139
▁rope	-9.27156
▁erect	-9.27302
▁peculiar	-9.27663
▁Emperor	-9.27682
▁green	-9.27684
▁fresh	-9.277
▁names	-9.27753
We	-9.28236
▁fatal	-9.28402
▁space	-9.28409
▁priest	-9.28431
▁breast	-9.28524
▁lines	-9.28589
▁lower	-9.29028
▁bench	-9.29112
▁evidently	-9.29173
▁Every	-9.2918
▁wounded	-9.29218
▁stared	-9.29266
▁worthy	-9.29319
▁sent	-9.29429
▁Only	-9.29543
▁Monseigneur	-9.29704
▁wrong	-9.29811
Why	-9.2984
st	-9.29842
▁soldier	-9.29857
▁civilization	-9.29862
▁guard	-9.29888
▁situation	-9.29889
▁play	-9.30121
▁double	-9.30176
▁Petit	-9.30395
▁kept	-9.30653
▁crowd	-9.30669
▁Wellington	-9.30692
▁waiting	-9.30779
▁addressed	-9.30853
▁talking	-9.30865
▁Was	-9.30877
▁Two	-9.30942
or	-9.30991
▁turning	-9.31123
—”	-9.31205
▁departure	-9.31343
▁month	-9.31477
▁VI	-9.31484
▁wood	-9.31536
▁believe	-9.31718
▁general	-9.31891
▁divine	-9.32039
▁middle	-9.32268
▁Not	-9.32277
▁possessed	-9.32283
▁approached	-9.32286
▁walking	-9.32391
_;	-9.32611
▁respect	-9.32621
▁key	-9.331
▁run	-9.33539
▁obscure	-9.33595
▁seeing	-9.33695
▁sweet	-9.337
▁gloom	-9.33722
▁fifty	-9.33756
▁possession	-9.33767
▁shut	-9.33789
▁several	-9.33805
▁G	-9.34014
▁ill	-9.34071
▁behold	-9.34106
▁beings	-9.3424
▁keep	-9.34465
▁insurrection	-9.34561
▁inn	-9.34569
▁number	-9.34599
Let	-9.34603
▁named	-9.34688
▁angle	-9.34691
▁opening	-9.35229
▁although	-9.35344
▁memory	-9.35351
▁condemned	-9.35361
▁tried	-9.35365
▁noticed	-9.35419
Saint	-9.35708
▁dream	-9.35733
▁With	-9.35788
▁friends	-9.35932
▁object	-9.35972
▁stars	-9.35973
▁stupid	-9.36021
▁existence	-9.3614
▁soldiers	-9.36161
▁lightning	-9.36195
▁persons	-9.36275
▁H	-9.36281
▁seem	-9.36552
▁bare	-9.36778
▁beyond	-9.36955
▁heavy	-9.36956
▁dropped	-9.36958
▁preceding	-9.36967
▁whence	-9.3709
▁deep	-9.37099
▁habit	-9.37232
▁bore	-9.37665
To	-9.37779
▁King	-9.37837
▁effort	-9.37851
▁attitude	-9.37866
▁virtue	-9.37876
▁calm	-9.37901
▁tomb	-9.38008
▁Mont	-9.38118
▁cap	-9.38457
▁complete	-9.38466
▁stones	-9.38533
▁flight	-9.38606
▁everywhere	-9.3861
▁pronounced	-9.38621
▁quitted	-9.38623
▁finished	-9.38674
▁whatever	-9.38688
▁mean	-9.38689
▁linen	-9.38752
▁talk	-9.39062
shot	-9.39204
▁king	-9.39205
▁dawn	-9.39228
▁cart	-9.39363
▁wrath	-9.39411
▁gamin	-9.39501
▁sense	-9.3951
▁roof	-9.39599
Oh	-9.39737
at	-9.39876
▁England	-9.40262
▁flung	-9.40262
▁lofty	-9.40264
▁pity	-9.40278
▁required	-9.40301
▁demanded	-9.40327
▁emerged	-9.40332
▁youth	-9.40859
▁honor	-9.40968
▁box	-9.41065
▁cause	-9.41093
▁instinct	-9.41197
.]	-9.41271
h	-9.41291
Who	-9.41338
▁change	-9.41373
ic	-9.41479
▁allow	-9.41524
▁horses	-9.4171
▁gold	-9.41958
▁ear	-9.41994
▁conscious	-9.42024
▁descended	-9.42031
▁18	-9.42281
▁died	-9.42394
▁purpose	-9.4286
▁horror	-9.42905
▁pistol	-9.42916
▁affair	-9.43016
▁action	-9.43114
▁march	-9.43344
▁narrow	-9.43433
▁abyss	-9.43626
Little	-9.43687
▁ourselves	-9.43695
▁repeated	-9.4371
▁absolutely	-9.43717
▁Such	-9.43745
▁happened	-9.4375
▁_“	-9.43879
▁falling	-9.44083
▁master	-9.44261
▁exists	-9.44348
▁shoulders	-9.44354
▁smoke	-9.44483
▁Baron	-9.44621
ation	-9.44645
▁reverie	-9.44669
▁R	-9.4475
▁result	-9.44816
▁shop	-9.44967
▁Brujon	-9.45434
▁trousers	-9.45435
▁staircase	-9.45436
▁distant	-9.45437
▁indescribable	-9.45439
▁Maire	-9.45449
▁straw	-9.45473
▁prioress	-9.45516
▁occupied	-9.45522
▁pure	-9.45542
▁lips	-9.45573
▁none	-9.46002
▁takes	-9.46161
▁lies	-9.46253
▁cloud	-9.46351
▁ended	-9.46531
▁self	-9.466
Father	-9.46609
So	-9.46622
▁shock	-9.46662
▁violent	-9.47179
▁yellow	-9.47217
▁Luxembourg	-9.47221
▁hung	-9.47234
▁observed	-9.47256
▁easy	-9.47277
▁illuminated	-9.47279
▁advanced	-9.4735
▁spite	-9.47351
tm	-9.47357
▁Tholomyès	-9.47429
▁rags	-9.47764
▁advance	-9.48106
▁best	-9.48124
T	-9.48131
▁desire	-9.48174
▁rise	-9.48251
▁plain	-9.48293
▁spirit	-9.48328
▁entrance	-9.48334
▁suffering	-9.48377
▁straight	-9.48916
▁nose	-9.48941
▁elder	-9.48994
▁audible	-9.49038
▁merely	-9.49053
▁thither	-9.49064
▁directed	-9.49099
▁across	-9.49105
▁belonged	-9.49156
▁etc	-9.49188
H	-9.49392
Is	-9.49469
▁holding	-9.49471
▁goes	-9.4949
This	-9.49903
▁remark	-9.49941
▁doors	-9.49943
▁blow	-9.5004
▁grating	-9.5014
▁peasant	-9.50186
▁devil	-9.50213
▁dog	-9.5025
▁Well	-9.505
▁expression	-9.50904
▁Basque	-9.50931
▁vanished	-9.50938
▁contained	-9.50996
▁thin	-9.51114
▁events	-9.51291
▁court	-9.51314
▁show	-9.51957
▁minute	-9.52026
▁flag	-9.52206
▁strength	-9.52499
▁grew	-9.52774
▁cemetery	-9.52776
▁unhappy	-9.52777
▁nevertheless	-9.52778
▁gently	-9.5278
▁meantime	-9.52781
▁immediately	-9.52787
▁false	-9.52827
▁committed	-9.52833
▁picked	-9.5286
▁arranged	-9.52862
▁centre	-9.52864
▁encountered	-9.52869
▁mentioned	-9.52891
▁People	-9.5295
▁angel	-9.53035
▁laughing	-9.53145
▁star	-9.53197
▁story	-9.53366
▁met	-9.53446
▁Their	-9.53449
Jean	-9.53524
▁act	-9.53546
▁infinite	-9.5366
▁grass	-9.53844
▁horizon	-9.53886
▁bridge	-9.5395
▁officer	-9.54049
Here	-9.54457
▁remember	-9.54547
▁fast	-9.54668
digger	-9.54678
▁occurred	-9.54702
▁evident	-9.54702
▁obscurity	-9.54702
▁magnificent	-9.54703
▁trembling	-9.54703
▁gazing	-9.54704
▁permitted	-9.54707
▁terrified	-9.54707
▁break	-9.54722
▁abruptly	-9.54722
▁daylight	-9.54734
▁authority	-9.54771
▁drawn	-9.5478
▁knowing	-9.54809
▁saved	-9.54814
▁used	-9.54973
▁sorts	-9.55108
▁Is	-9.55108
▁passers	-9.55277
▁sat	-9.55387
▁combat	-9.55446
ity	-9.55512
▁exist	-9.55594
▁drink	-9.55639
▁pointed	-9.55763
▁branch	-9.56034
ng	-9.56154
▁works	-9.56228
▁doll	-9.56277
Picpus	-9.56326
du	-9.5635
▁conceal	-9.56504
this	-9.56597
▁questions	-9.56613
▁absolute	-9.56651
▁forgotten	-9.56661
▁sinister	-9.56661
▁simply	-9.56667
▁becoming	-9.56688
▁rare	-9.56699
▁empty	-9.56702
▁wrote	-9.56703
▁Toussaint	-9.56705
▁stopped	-9.56705
▁branches	-9.56712
▁moved	-9.56732
less	-9.56745
▁interior	-9.56755
▁badly	-9.56778
▁insurgents	-9.56877
▁ready	-9.5702
▁theft	-9.57239
▁yes	-9.57446
▁clouds	-9.57478
ers	-9.57505
▁trouble	-9.57754
▁L	-9.57769
▁friend	-9.57874
▁spread	-9.57911
▁fortune	-9.57993
▁Thénardiers	-9.58235
▁N	-9.58263
▁school	-9.58476
▁sum	-9.58595
▁innocent	-9.58608
▁silent	-9.58621
▁Plumet	-9.58658
▁dying	-9.58674
▁Each	-9.58701
▁twilight	-9.58704
▁answered	-9.58776
▁WHICH	-9.59031
▁meet	-9.59084
▁c	-9.59087
what	-9.59145
▁different	-9.59212
▁tree	-9.59398
▁group	-9.59791
▁bank	-9.59886
▁language	-9.59895
▁traveller	-9.59953
▁reach	-9.60332
▁cloth	-9.60358
▁wretch	-9.60489
▁Europe	-9.60658
▁sou	-9.60673
▁beauty	-9.607
▁business	-9.60702
▁philosophy	-9.60703
▁coarse	-9.60716
▁attached	-9.60731
▁handsome	-9.60733
▁VII	-9.60746
▁gray	-9.60755
▁difficulty	-9.60755
▁vaguely	-9.60767
▁thrown	-9.60774
▁wooden	-9.60785
▁chain	-9.60819
▁broad	-9.60824
▁hard	-9.60829
Where	-9.60978
▁greatly	-9.61107
▁won	-9.6114
▁nuns	-9.61289
▁birds	-9.61302
▁armed	-9.61484
▁village	-9.61544
▁add	-9.61619
▁follow	-9.6163
▁bell	-9.61801
▁please	-9.61892
▁ought	-9.61947
▁corridor	-9.61978
▁glimpse	-9.62025
▁revolt	-9.62044
▁natural	-9.6211
D	-9.62111
▁visit	-9.62302
▁et	-9.62313
▁clear	-9.62318
▁cat	-9.62346
▁heap	-9.62512
▁carry	-9.62614
▁bound	-9.62676
▁opposite	-9.62792
▁Théodule	-9.6283
▁formerly	-9.62867
▁absorbed	-9.62869
▁accepted	-9.62911
▁Sometimes	-9.6293
▁sought	-9.62931
▁length	-9.63005
▁shoulder	-9.63006
▁colonel	-9.63035
▁bar	-9.63121
▁hollow	-9.6315
▁nine	-9.63151
▁sides	-9.63204
▁vault	-9.63986
▁grape	-9.64124
▁hovel	-9.64136
▁passage	-9.64155
▁field	-9.64515
▁severe	-9.64673
▁twelve	-9.6491
▁tolerably	-9.64911
▁next	-9.64911
▁sacred	-9.64911
▁paving	-9.64934
▁rapidly	-9.64939
▁getting	-9.6494
▁lie	-9.64947
▁sixty	-9.64968
▁nation	-9.65306
i	-9.654
▁w	-9.65725
▁grow	-9.65901
as	-9.65921
▁leaves	-9.66155
ous	-9.66197
▁building	-9.66347
▁aspect	-9.6639
ne	-9.66403
▁beast	-9.66403
▁river	-9.66474
▁alley	-9.66807
▁tear	-9.66876
▁broke	-9.66991
▁supreme	-9.67036
▁strong	-9.67073
▁afraid	-9.67083
▁National	-9.67084
▁monstrous	-9.67085
▁Champmathieu	-9.67085
▁wedding	-9.67089
▁finally	-9.67109
▁retorted	-9.67113
▁entirely	-9.67124
▁offered	-9.67196
▁terms	-9.67214
▁troubled	-9.67232
▁ruffians	-9.67259
Those	-9.67408
▁clothes	-9.67469
▁lose	-9.67646
▁lead	-9.67944
▁figure	-9.68147
▁points	-9.682
▁sea	-9.68388
▁save	-9.68476
▁dull	-9.68492
▁blouse	-9.68517
▁hatred	-9.68522
▁tongue	-9.68536
▁reflection	-9.68555
▁brain	-9.6857
▁bishop	-9.68793
▁lives	-9.69259
▁ex	-9.69263
▁entire	-9.69265
▁useful	-9.69297
▁agony	-9.69306
▁cavalry	-9.69306
▁extremity	-9.69306
▁Chanvrerie	-9.69306
▁Boulatruelle	-9.69307
▁reality	-9.69316
▁anguish	-9.69324
▁engaged	-9.69326
▁p	-9.69358
▁risk	-9.69373
▁folded	-9.69439
▁former	-9.69469
▁fate	-9.69524
man	-9.69594
▁receive	-9.69609
▁Everything	-9.69624
▁wished	-9.6965
▁m	-9.70102
▁dreams	-9.70358
▁sees	-9.70358
▁snow	-9.70458
keeper	-9.70522
▁level	-9.70714
▁fever	-9.70832
▁handed	-9.71331
▁Rome	-9.71481
Good	-9.71515
▁ferocious	-9.7153
▁confidence	-9.71579
▁sublime	-9.7159
▁paradise	-9.71596
▁plunged	-9.7161
▁examined	-9.71611
▁Seine	-9.71627
▁political	-9.71631
▁glory	-9.71681
▁CH	-9.71684
▁laughter	-9.71698
▁eighty	-9.71712
▁VIII	-9.71722
▁Babet	-9.71733
▁spoken	-9.71782
▁cost	-9.71836
▁lady	-9.71843
▁note	-9.71851
▁dear	-9.72138
▁pace	-9.72469
▁search	-9.72485
▁flat	-9.72509
ary	-9.72529
▁mounted	-9.72539
▁guns	-9.72744
▁appear	-9.72759
▁ruin	-9.72833
▁halt	-9.7286
▁government	-9.7295
▁district	-9.73014
▁cloister	-9.73068
▁fist	-9.73221
▁lantern	-9.7337
all	-9.73658
▁mad	-9.73785
▁warm	-9.73805
▁wait	-9.73838
▁sheet	-9.73895
▁neighborhood	-9.73905
▁flash	-9.73906
▁extent	-9.73911
▁special	-9.7392
▁surrounded	-9.73926
▁mud	-9.73944
▁threw	-9.73967
She	-9.74013
▁instead	-9.74086
▁remembered	-9.74091
▁leagues	-9.74132
▁cartridges	-9.74143
▁changed	-9.74174
▁catch	-9.74186
▁Besides	-9.74216
▁wide	-9.74251
▁shot	-9.74351
▁tranquil	-9.74435
▁early	-9.74476
▁places	-9.74538
▁Did	-9.74577
▁orders	-9.74581
Y	-9.74627
▁labor	-9.74964
▁creatures	-9.75104
▁write	-9.75438
▁exception	-9.75501
▁countenance	-9.75502
▁led	-9.75681
▁remains	-9.75695
▁BE	-9.76016
Illustration	-9.7627
▁born	-9.76274
▁buried	-9.76283
▁conflict	-9.76284
▁Favourite	-9.76284
▁summer	-9.76284
▁leaving	-9.76293
▁precisely	-9.763
▁Laigle	-9.76336
▁thief	-9.7634
▁moreover	-9.7635
▁tiny	-9.76357
▁murmured	-9.76366
▁basket	-9.76391
▁furnished	-9.76396
stones	-9.76617
▁escaped	-9.76617
▁wings	-9.7671
te	-9.7735
ever	-9.77603
▁mistake	-9.77782
F	-9.77805
▁rear	-9.77814
▁X	-9.77851
▁belong	-9.77853
▁tall	-9.77868
▁mothers	-9.77932
▁monster	-9.77959
▁Guard	-9.7798
▁nun	-9.7805
▁bearing	-9.78249
▁boy	-9.78651
▁thoughtful	-9.78693
▁gay	-9.78703
▁flesh	-9.7872
▁Empire	-9.78721
▁hastily	-9.78722
▁facts	-9.78746
▁pulled	-9.78749
▁built	-9.78754
▁amazement	-9.78754
▁humanity	-9.78755
▁moon	-9.78773
▁July	-9.78775
▁trembled	-9.78787
▁abandoned	-9.788
They	-9.78805
▁created	-9.78806
▁Had	-9.78912
▁giving	-9.78937
▁talked	-9.79078
▁Hence	-9.79119
If	-9.79136
▁torn	-9.79272
▁fingers	-9.79361
▁admit	-9.79431
▁tears	-9.79444
▁b	-9.79511
▁Of	-9.79539
▁feels	-9.8005
▁cudgel	-9.80407
▁books	-9.80435
▁degree	-9.80469
▁attic	-9.80556
▁servant	-9.80642
▁bird	-9.8071
▁passer	-9.80721
▁gleam	-9.81052
me	-9.81083
▁powder	-9.8117
▁tragic	-9.81221
▁mine	-9.81221
▁mystery	-9.81221
▁uneasy	-9.81222
▁gradually	-9.81223
▁easily	-9.81223
▁President	-9.81223
▁unexpected	-9.81223
▁ignorant	-9.81225
▁thoroughly	-9.81229
▁artillery	-9.81252
▁afterwards	-9.81282
five	-9.81311
▁Philippe	-9.81319
▁holy	-9.81366
▁useless	-9.81509
▁sergeant	-9.81856
c	-9.82253
▁looking	-9.8238
▁forward	-9.82847
▁refuge	-9.82889
▁courtyard	-9.8289
▁perceive	-9.82933
▁Are	-9.82942
▁mirror	-9.82991
▁week	-9.83045
é	-9.83081
▁rage	-9.83181
▁nail	-9.83288
▁explain	-9.83435
▁firm	-9.83552
▁surprise	-9.83661
▁late	-9.83665
▁touch	-9.83682
▁difficult	-9.83706
▁confused	-9.83746
▁furniture	-9.83786
▁necessity	-9.8379
▁arriving	-9.8379
▁Mayor	-9.83802
▁common	-9.83821
▁learned	-9.8384
▁acquainted	-9.83842
▁singing	-9.83972
▁Sister	-9.84024
Have	-9.84042
▁played	-9.8407
▁amount	-9.84159
▁smiled	-9.84227
▁dress	-9.84509
▁utter	-9.8454
▁send	-9.84733
of	-9.84737
▁art	-9.84801
▁pair	-9.84978
▁Be	-9.85041
u	-9.85285
um	-9.85399
▁contain	-9.85593
▁danger	-9.856
▁individual	-9.85616
▁knee	-9.8567
▁faith	-9.86038
”;	-9.86045
▁height	-9.86208
▁tender	-9.86369
▁worth	-9.86379
▁ugly	-9.86414
▁populace	-9.86417
▁addition	-9.86417
▁elephant	-9.86417
▁uproar	-9.86417
▁situated	-9.86417
▁education	-9.86418
▁surface	-9.86419
▁otherwise	-9.86428
▁experienced	-9.86452
▁separated	-9.86466
▁reflected	-9.86466
▁Faubourg	-9.86475
▁Austerlitz	-9.86538
▁Voltaire	-9.86539
▁principal	-9.86725
▁thanks	-9.86786
Antoine	-9.86786
▁forever	-9.86962
▁ball	-9.86999
▁elbows	-9.87006
▁soil	-9.87013
▁resembles	-9.87032
▁Love	-9.87106
▁aged	-9.87836
▁Ma	-9.87849
▁listen	-9.87884
▁thunder	-9.87957
▁render	-9.87986
▁answer	-9.88125
g	-9.88136
ry	-9.88175
▁Come	-9.88212
▁radiance	-9.88277
▁dinner	-9.88326
▁gesture	-9.88349
▁lawyer	-9.88353
▁pleasure	-9.88353
▁pen	-9.88363
▁thread	-9.88437
▁corpse	-9.88469
▁trap	-9.88753
▁daughters	-9.88876
▁study	-9.88923
▁Republic	-9.89049
▁portress	-9.89063
▁unfortunate	-9.89076
Homme	-9.89104
TH	-9.89115
▁Armé	-9.89116
▁WITH	-9.89117
▁Arras	-9.89118
▁garret	-9.89118
▁intelligence	-9.8912
▁curious	-9.89124
▁smiling	-9.89129
▁worse	-9.89132
▁arrival	-9.89141
▁distinctly	-9.89152
▁overwhelmed	-9.89161
▁ceased	-9.89164
▁Place	-9.8918
▁bestowed	-9.89191
▁provided	-9.89212
▁taste	-9.89217
▁grasped	-9.89227
▁worn	-9.89227
▁fled	-9.89243
▁wretched	-9.89317
▁hall	-9.89418
▁barricades	-9.89458
▁crossed	-9.89464
AP	-9.89627
▁legs	-9.89862
▁aunt	-9.89873
▁W	-9.90081
▁appears	-9.90083
▁voices	-9.90522
▁adventure	-9.90662
▁marriage	-9.90985
▁altar	-9.90989
▁approach	-9.91014
▁office	-9.91085
▁position	-9.9111
▁throng	-9.91151
▁report	-9.91278
▁cellar	-9.91381
▁possess	-9.91482
▁success	-9.91554
un	-9.91689
▁hearts	-9.91778
▁imagine	-9.91797
▁agent	-9.91803
▁refrain	-9.91896
▁solitary	-9.91896
▁property	-9.91898
▁military	-9.919
▁radiant	-9.91901
▁rosy	-9.91902
▁probable	-9.91909
▁anxiety	-9.91922
▁frightened	-9.91922
▁vain	-9.91934
▁fond	-9.91935
▁petty	-9.91956
▁miserable	-9.91959
▁satisfied	-9.91966
▁adored	-9.91968
▁upper	-9.91969
▁inquired	-9.91969
▁pursued	-9.91971
▁pushed	-9.91974
▁indicated	-9.91996
▁dared	-9.91998
▁proceeded	-9.92028
▁discovered	-9.92034
▁suffered	-9.92034
▁lying	-9.92063
▁somewhat	-9.92064
▁aloud	-9.9207
▁science	-9.92086
▁Champ	-9.92088
▁grown	-9.92112
et	-9.92134
▁established	-9.92176
Jacques	-9.92299
▁HIS	-9.92381
▁1.	-9.92481
▁thy	-9.9252
IN	-9.92563
▁ears	-9.92588
piece	-9.92997
▁Sainte	-9.93813
▁advantage	-9.93907
▁violence	-9.93957
▁charge	-9.93963
▁throat	-9.93981
▁drop	-9.93984
▁detail	-9.94036
▁stand	-9.94103
▁finger	-9.94145
▁gown	-9.94292
house	-9.94348
▁cover	-9.94473
▁absent	-9.94574
▁Hucheloup	-9.94754
▁Providence	-9.94754
▁shook	-9.94757
▁huge	-9.94767
▁quickly	-9.94768
▁stepped	-9.94775
▁sake	-9.94784
▁rapid	-9.94803
▁Bahorel	-9.94815
▁subterranean	-9.94817
▁possibly	-9.94819
▁accustomed	-9.94831
▁preserved	-9.94851
▁wholly	-9.94854
▁recalled	-9.9488
▁lacking	-9.94897
▁sufficient	-9.94898
▁seeking	-9.94928
▁laughed	-9.9514
▁passes	-9.95153
▁gives	-9.95485
Are	-9.95542
▁fit	-9.95588
▁matters	-9.95892
▁Le	-9.9606
▁inside	-9.96193
▁pause	-9.96418
▁minds	-9.96619
▁arrest	-9.96676
▁candles	-9.96692
▁flame	-9.96801
▁difference	-9.96811
▁IS	-9.96824
▁savage	-9.96907
▁conversation	-9.96928
▁barrier	-9.96948
▁religion	-9.96954
▁slope	-9.96954
▁season	-9.97063
▁J	-9.97089
tre	-9.97143
▁land	-9.97265
ance	-9.97347
▁calls	-9.97395
▁Have	-9.97398
.’	-9.9745
▁collar	-9.97559
▁spy	-9.97619
▁livid	-9.97628
▁merry	-9.977
▁flower	-9.97703
▁XVIII	-9.9773
▁burning	-9.97753
▁refused	-9.97758
▁yesterday	-9.97759
▁181	-9.97786
▁Joly	-9.97826
▁permission	-9.97829
▁retreated	-9.97847
▁dust	-9.97872
▁Duc	-9.97933
▁growing	-9.97941
▁rising	-9.97992
▁boots	-9.98031
▁MAN	-9.98057
▁kind	-9.98139
▁leg	-9.98264
men	-9.98341
▁corners	-9.98553
▁toil	-9.98636
▁ONE	-9.98682
▁wear	-9.99263
▁retreat	-9.99464
▁draw	-9.99525
▁redoubt	-9.99753
▁chapel	-9.99818
▁wound	-9.99842
▁produce	-9.99873
▁date	-9.99887
▁curé	-9.99912
▁column	-9.99964
▁vehicle	-9.99977
▁emotion	-9.99979
▁begin	-10.0001
▁vision	-10.0005
▁writing	-10.0005
▁prayer	-10.0007
▁support	-10.0039
▁1830	-10.0044
▁finds	-10.0052
▁sick	-10.0063
!’	-10.0065
▁health	-10.0066
▁furious	-10.0068
▁ecstasy	-10.0072
▁lugubrious	-10.0072
▁wretchedness	-10.0074
▁dazzled	-10.0074
▁feeble	-10.0074
▁capable	-10.0076
▁mattress	-10.0076
▁interrupted	-10.0077
▁cuirassiers	-10.0079
▁bucket	-10.0079
▁coachman	-10.008
▁stairs	-10.008
▁serve	-10.0081
▁concerned	-10.0084
▁arrested	-10.0091
▁approaching	-10.0092
▁Jesus	-10.0093
▁waited	-10.0094
▁rag	-10.0095
▁setting	-10.0096
▁pleased	-10.01
▁Still	-10.0101
▁party	-10.0115
▁watching	-10.0117
▁breathed	-10.0135
▁quarters	-10.0152
▁reading	-10.0163
▁IX	-10.0168
la	-10.0198
sar	-10.0217
▁bars	-10.0228
Don	-10.0237
▁Yes	-10.0249
▁notice	-10.0282
▁attempt	-10.0292
▁pieces	-10.0298
▁pile	-10.0299
▁condition	-10.0309
▁catastrophe	-10.031
▁gulf	-10.031
▁depth	-10.0311
▁stop	-10.0316
ment	-10.033
▁purse	-10.0332
▁favor	-10.0334
▁holes	-10.0341
▁shudder	-10.0351
▁accord	-10.0356
▁perfect	-10.0357
▁deliver	-10.0371
▁pockets	-10.0371
▁prove	-10.038
▁sudden	-10.0381
▁1832	-10.0384
▁tumult	-10.0385
▁ejaculat	-10.0385
▁Barrière	-10.0385
▁contemplation	-10.0385
▁complicated	-10.0386
▁childhood	-10.0386
▁falls	-10.0386
▁exhausted	-10.0387
▁clad	-10.0387
▁particularly	-10.0388
▁fastened	-10.0389
▁ascended	-10.039
▁clearly	-10.0391
▁replaced	-10.0391
▁deeply	-10.0392
▁stolen	-10.0393
▁usual	-10.0395
▁admirable	-10.0395
▁assumed	-10.0396
▁consisted	-10.0396
▁distinguished	-10.0396
▁shade	-10.04
.—“	-10.0401
▁permit	-10.0402
▁invisible	-10.0403
▁explained	-10.0404
▁mire	-10.0404
▁listening	-10.0411
▁wise	-10.0419
▁feared	-10.0429
cher	-10.0442
p	-10.0449
▁wheels	-10.0485
▁faces	-10.0494
his	-10.0497
▁f	-10.0516
▁start	-10.0519
▁exchange	-10.0522
▁blows	-10.0533
one	-10.0535
▁reasons	-10.0554
▁Go	-10.0559
▁emerge	-10.0565
▁repeat	-10.0577
▁suffer	-10.0585
▁encounter	-10.0596
▁interest	-10.0603
▁proportion	-10.0605
▁moral	-10.0609
▁arrive	-10.061
▁neighbor	-10.0613
▁equal	-10.0614
▁sepulchre	-10.0615
▁marble	-10.0616
▁stir	-10.0623
▁spectre	-10.0633
▁chief	-10.0646
ce	-10.0662
▁sisters	-10.0673
▁alarm	-10.0675
▁rent	-10.0676
▁fatigue	-10.0702
▁genius	-10.0702
▁distress	-10.0702
▁raise	-10.0702
▁dangerous	-10.0703
no	-10.0706
▁families	-10.0707
▁gayety	-10.0707
▁Mondétour	-10.0707
▁Prouvaire	-10.0707
▁contrary	-10.0707
▁incessantly	-10.0708
▁waistcoat	-10.0708
▁ensued	-10.0708
▁hidden	-10.0708
▁hungry	-10.0708
hall	-10.0709
▁indeed	-10.071
▁removed	-10.0712
▁crushed	-10.0712
▁Nicolette	-10.0714
▁victory	-10.0715
▁enveloped	-10.0717
▁intervals	-10.0721
attorney	-10.0722
▁combatants	-10.0724
▁Temple	-10.0729
▁shuddered	-10.073
▁completed	-10.0734
▁alive	-10.0734
▁believed	-10.0736
▁staring	-10.0736
▁attacked	-10.0742
▁aim	-10.075
▁watched	-10.0751
▁meant	-10.0765
▁les	-10.0778
▁joyous	-10.078
▁wounds	-10.0787
▁details	-10.0792
▁liked	-10.0799
six	-10.0805
ED	-10.0837
▁lane	-10.0842
▁extreme	-10.0842
▁sand	-10.0879
for	-10.0883
▁Man	-10.0902
▁proceed	-10.0927
f	-10.0937
▁help	-10.0941
▁regard	-10.0944
▁en	-10.0944
▁elbow	-10.0948
▁veil	-10.0948
▁kill	-10.0952
▁example	-10.0956
▁ceiling	-10.0961
▁bullet	-10.0966
▁rule	-10.097
▁offer	-10.0973
▁member	-10.0988
▁gardener	-10.0988
▁feeling	-10.1011
▁triumph	-10.1015
Cosette	-10.1025
▁throw	-10.103
▁dry	-10.1033
▁mournful	-10.1036
▁desperate	-10.1038
▁Italy	-10.104
▁process	-10.104
▁popular	-10.104
▁fierce	-10.1041
▁charity	-10.1041
▁connected	-10.1041
▁celestial	-10.1041
▁extraordinary	-10.1041
▁dazzling	-10.1041
▁universal	-10.1041
▁elsewhere	-10.1041
▁consideration	-10.1041
▁antique	-10.1042
▁fireplace	-10.1043
▁represented	-10.1044
▁putting	-10.1046
▁sufficed	-10.1047
▁wolf	-10.1047
▁rushed	-10.1051
▁foundation	-10.1053
▁harsh	-10.1056
▁mistaken	-10.1057
▁Charles	-10.1059
▁alarming	-10.106
▁candlesticks	-10.1063
▁Bonaparte	-10.1064
▁loud	-10.1065
▁carrying	-10.1069
▁turns	-10.1091
▁wanted	-10.1109
▁humble	-10.1113
▁qu	-10.1128
▁corpses	-10.1134
let	-10.1135
thou	-10.1149
▁insist	-10.115
▁figures	-10.1152
▁angels	-10.1172
▁hence	-10.1177
▁angles	-10.1203
Sainte	-10.1218
▁chairs	-10.1219
▁reproach	-10.1229
▁spra	-10.1238
▁roll	-10.1282
▁inward	-10.1282
▁5	-10.1292
▁grace	-10.1293
▁delight	-10.1294
▁whisper	-10.1299
▁inspector	-10.1306
▁beggar	-10.1307
▁quay	-10.131
▁opinion	-10.1311
▁crest	-10.1311
▁stay	-10.1311
▁passion	-10.1317
like	-10.1319
▁error	-10.133
▁drama	-10.1341
▁pick	-10.1346
out	-10.1364
▁mist	-10.1369
▁loves	-10.137
▁weep	-10.1373
▁drunk	-10.1379
▁abrupt	-10.138
▁Christ	-10.1382
▁period	-10.1382
nt	-10.1384
▁Myriel	-10.1384
▁female	-10.1384
▁slept	-10.1384
▁august	-10.1384
▁Magnon	-10.1384
▁Toulon	-10.1384
▁ray	-10.1385
▁curiosity	-10.1385
▁Holy	-10.1386
▁nightfall	-10.1386
▁moving	-10.1387
▁daybreak	-10.1387
▁consent	-10.1387
▁exactly	-10.1387
▁previously	-10.1387
▁pierced	-10.1388
▁admitted	-10.1388
▁retired	-10.1389
▁hurled	-10.1389
▁painted	-10.139
▁creation	-10.1391
▁penetrated	-10.1392
▁revolutionary	-10.1394
ince	-10.1395
▁Another	-10.1395
▁constituted	-10.1398
▁instantly	-10.1398
▁prey	-10.1398
▁alarmed	-10.1401
▁pressed	-10.1405
▁hearse	-10.1405
▁divined	-10.1416
▁XI	-10.1429
▁Perhaps	-10.1442
▁tap	-10.1442
▁greater	-10.145
▁rested	-10.1467
four	-10.1467
▁nails	-10.1491
hole	-10.1495
MARIUS	-10.15
▁Just	-10.1501
Now	-10.1507
ING	-10.1511
▁kings	-10.1528
▁2	-10.1551
▁Ch	-10.1555
thwart	-10.161
At	-10.1611
▁r	-10.1614
▁descend	-10.1626
▁command	-10.1634
▁struggle	-10.164
▁insult	-10.1641
ie	-10.1641
▁pardon	-10.1645
▁Bastille	-10.165
▁Your	-10.165
▁judge	-10.1653
▁custom	-10.1659
▁threshold	-10.1661
▁lack	-10.1665
▁storm	-10.1674
▁salute	-10.1674
▁journey	-10.1679
illes	-10.1699
▁breakfast	-10.1704
▁stroll	-10.1705
▁lock	-10.1705
0	-10.1715
▁Good	-10.172
▁shelter	-10.1727
▁splendid	-10.1737
),	-10.1737
▁Simplice	-10.1741
▁ineffable	-10.1741
▁majesty	-10.1741
▁yonder	-10.1741
▁angry	-10.1741
▁community	-10.1741
▁midnight	-10.1741
▁private	-10.1741
▁stuff	-10.1741
▁celebrated	-10.1742
▁universe	-10.1742
▁Latin	-10.1742
▁palace	-10.1742
▁deuce	-10.1742
▁suspended	-10.1743
▁species	-10.1743
▁ladies	-10.1745
▁meditated	-10.1747
▁Bl	-10.1747
▁dint	-10.1748
▁increased	-10.1748
▁chemise	-10.1749
▁supposed	-10.1749
▁stretched	-10.175
▁Before	-10.175
▁leaned	-10.1752
▁masses	-10.1755
▁stockings	-10.1757
▁style	-10.1757
▁Once	-10.1761
▁thick	-10.1776
▁aware	-10.1777
▁deeds	-10.1783
▁meaning	-10.1784
Go	-10.1793
▁sleeping	-10.1797
▁bullets	-10.1822
▁Alas	-10.1833
▁assassin	-10.1892
▁ON	-10.1893
▁pot	-10.1958
▁revolutions	-10.1966
3	-10.1984
▁recall	-10.1996
▁working	-10.1999
▁peril	-10.2003
▁mask	-10.2013
▁content	-10.2021
am	-10.2021
▁absence	-10.2023
▁stomach	-10.2027
▁shirt	-10.2033
▁hell	-10.2036
▁accent	-10.2036
▁swords	-10.2037
▁regiment	-10.2037
▁seat	-10.2038
▁forget	-10.2048
▁wheel	-10.2049
▁besides	-10.2051
▁phrase	-10.2051
▁solid	-10.2064
▁Grand	-10.2087
▁kiss	-10.2093
▁hedge	-10.21
▁breathe	-10.2103
▁regular	-10.2109
▁electronic	-10.2111
▁Baptistine	-10.2112
▁poverty	-10.2112
Calvaire	-10.2112
▁innocence	-10.2112
▁choice	-10.2112
▁venerable	-10.2112
▁intelligent	-10.2112
▁duties	-10.2112
▁monarchy	-10.2113
▁raising	-10.2113
▁combined	-10.2114
▁gentlemen	-10.2114
▁company	-10.2114
▁odor	-10.2114
▁daring	-10.2116
▁stammered	-10.2117
▁possesses	-10.212
▁obeyed	-10.2121
▁song	-10.2122
▁material	-10.2122
▁During	-10.2122
▁bowed	-10.2122
▁henceforth	-10.2125
▁laws	-10.2127
▁Lark	-10.2129
▁Hougomont	-10.213
▁directly	-10.2131
▁path	-10.2137
▁wing	-10.2138
▁touching	-10.2138
▁sewers	-10.2141
▁wearing	-10.2142
▁waste	-10.2142
▁profit	-10.2143
▁Any	-10.2149
▁knife	-10.2156
▁May	-10.2168
▁eaten	-10.2168
▁ease	-10.2168
▁fourth	-10.2177
book	-10.2187
▁Three	-10.2193
▁sing	-10.2212
▁hearing	-10.2215
▁rough	-10.2223
▁lad	-10.2248
▁nations	-10.2258
▁prefer	-10.2274
▁affairs	-10.2275
▁roofs	-10.2279
ities	-10.2286
▁express	-10.2292
▁count	-10.2314
PT	-10.2358
Be	-10.236
▁h	-10.238
▁mouths	-10.2394
▁needs	-10.2395
▁picture	-10.24
▁superior	-10.2403
▁wit	-10.2404
▁happen	-10.2404
▁cravat	-10.2405
▁counsel	-10.2407
▁hospital	-10.241
▁character	-10.2411
▁sacrifice	-10.2413
▁fill	-10.2415
▁trace	-10.2415
▁tavern	-10.2416
▁sitting	-10.2416
▁uniform	-10.242
▁cavern	-10.242
▁armchair	-10.2421
▁problem	-10.2421
▁galley	-10.2422
▁Parisian	-10.2422
▁Prince	-10.2426
▁ladder	-10.2429
▁handle	-10.2433
▁market	-10.2435
▁lamp	-10.2436
▁card	-10.2437
se	-10.2457
▁grasp	-10.2462
▁marry	-10.2476
▁consist	-10.2486
ur	-10.2489
▁painful	-10.2491
▁proper	-10.2494
▁Gorbeau	-10.2496
▁connection	-10.2496
▁velvet	-10.2496
▁woollen	-10.2496
▁fragment	-10.2496
▁delicate	-10.2496
▁heroic	-10.2496
▁Feuilly	-10.2497
▁slipped	-10.2497
▁meanwhile	-10.2497
▁decided	-10.2497
▁various	-10.2498
▁tenderness	-10.2498
▁converted	-10.2498
▁whither	-10.2498
▁religious	-10.2498
▁intoxicated	-10.2498
▁Halles	-10.2499
▁Pont	-10.2499
▁mistress	-10.25
▁sufficiently	-10.2502
ant	-10.2504
▁couple	-10.2504
▁event	-10.2504
▁deposited	-10.2504
▁accomplished	-10.2505
▁midday	-10.2506
▁handkerchief	-10.2506
▁Blachevelle	-10.2506
▁grandeur	-10.2507
▁declared	-10.2509
▁stage	-10.251
▁utterly	-10.2511
but	-10.2513
▁elapsed	-10.2514
▁proved	-10.2516
▁desired	-10.2526
▁repose	-10.2527
▁remarked	-10.253
▁Abbé	-10.2533
▁hanging	-10.2536
▁suffices	-10.254
▁drinking	-10.2541
ent	-10.2543
▁playing	-10.2544
▁General	-10.2547
▁gendarmes	-10.2548
▁base	-10.2553
▁chin	-10.2564
▁powerful	-10.2577
▁returning	-10.2583
tree	-10.2588
▁begins	-10.2596
▁vent	-10.2598
All	-10.2632
▁breaking	-10.2643
▁sp	-10.2648
▁portion	-10.2648
Bah	-10.2672
ier	-10.2695
▁lasted	-10.2697
▁guide	-10.2697
ot	-10.2729
▁pre	-10.2747
Then	-10.2754
▁accept	-10.2771
▁demand	-10.2781
▁shout	-10.2793
▁movements	-10.2799
▁birth	-10.2803
▁hesitation	-10.2811
▁multitude	-10.2816
▁meditation	-10.2816
▁misfortune	-10.2817
▁tiger	-10.2819
▁establishment	-10.282
▁statue	-10.282
▁phantom	-10.2821
▁cell	-10.2827
▁fruit	-10.2833
▁theatre	-10.2834
ted	-10.2834
▁rock	-10.2836
▁co	-10.2854
▁mention	-10.2863
▁speech	-10.2889
▁solemn	-10.2891
▁clever	-10.2891
▁bold	-10.2894
▁April	-10.2896
▁Boulevard	-10.2896
▁apparition	-10.2896
▁Restoration	-10.2896
▁generous	-10.2896
▁confusion	-10.2896
Denis	-10.2896
▁running	-10.2897
▁task	-10.2898
▁weather	-10.2898
▁extinguished	-10.2899
▁muttered	-10.2899
▁sadness	-10.2899
▁stamped	-10.29
▁executed	-10.2901
▁wept	-10.2901
▁summoned	-10.2902
▁famous	-10.2902
▁employed	-10.2902
▁released	-10.2903
▁naked	-10.2904
▁barely	-10.2906
▁lifted	-10.2909
▁inclined	-10.2909
▁luminous	-10.291
▁contented	-10.2913
▁shouting	-10.2914
▁Gervais	-10.2915
▁infantry	-10.2915
▁started	-10.2917
▁neighboring	-10.2919
2	-10.2921
▁belly	-10.2924
▁millions	-10.2926
▁dare	-10.2927
▁fly	-10.2929
▁lowered	-10.294
▁apart	-10.2949
▁scent	-10.2952
▁lovers	-10.2963
▁breathing	-10.2965
▁effected	-10.2967
▁continue	-10.297
▁emotions	-10.2996
▁contains	-10.301
▁stands	-10.3012
▁fully	-10.3025
C	-10.3038
▁owed	-10.3057
▁fields	-10.3057
Take	-10.3069
By	-10.3082
▁Because	-10.309
▁sovereign	-10.3121
▁prisoners	-10.3127
▁pavements	-10.3128
▁U	-10.3135
▁owe	-10.3143
▁Can	-10.3164
▁defend	-10.317
▁regret	-10.3187
we	-10.3199
▁shore	-10.321
▁particular	-10.3218
▁Marquis	-10.3221
▁Don	-10.3231
▁slumber	-10.3231
▁virgin	-10.3234
▁capital	-10.3235
▁thicket	-10.3235
▁trip	-10.3241
▁beds	-10.3244
▁crown	-10.3244
▁apartment	-10.3245
▁sell	-10.3264
▁rights	-10.3271
▁beard	-10.3289
▁traverse	-10.3301
▁lodge	-10.3303
▁confine	-10.3306
▁brilliant	-10.3308
▁final	-10.331
▁Foundation	-10.3313
▁appointed	-10.3313
▁enemy	-10.3313
▁colossal	-10.3313
▁expiration	-10.3313
▁nocturnal	-10.3313
▁fury	-10.3314
▁drooping	-10.3314
▁astonished	-10.3315
▁supper	-10.3315
▁torch	-10.3315
▁wicked	-10.3316
▁indifference	-10.3317
▁recoiled	-10.3317
▁extremely	-10.3318
▁clasped	-10.3318
▁performed	-10.3319
▁outlined	-10.3319
▁upright	-10.332
▁brave	-10.3321
▁extended	-10.3321
▁firing	-10.3321
▁louis	-10.3322
▁suspicious	-10.3323
▁dragged	-10.3323
▁information	-10.3323
▁reigned	-10.3324
▁mute	-10.3325
▁wax	-10.3331
▁fetch	-10.3337
▁marked	-10.3338
▁garments	-10.3344
▁Even	-10.3344
▁shutters	-10.3347
▁host	-10.3347
▁Like	-10.3352
▁nailed	-10.3357
▁arose	-10.3358
▁fancy	-10.3358
▁crying	-10.3367
▁folds	-10.3373
▁harm	-10.3381
▁ashes	-10.3381
coat	-10.3391
▁opinions	-10.3405
▁resting	-10.341
▁Dieu	-10.3412
▁fired	-10.3415
▁royal	-10.3447
our	-10.3455
▁buildings	-10.3459
▁Does	-10.3463
leading	-10.3464
▁Je	-10.3474
if	-10.3479
Madame	-10.3482
One	-10.3484
For	-10.3497
▁sub	-10.3503
▁dogs	-10.351
teau	-10.3545
ting	-10.3578
▁Take	-10.3579
trees	-10.3595
▁pain	-10.3599
ions	-10.3604
▁Co	-10.3621
▁shame	-10.3626
▁resemble	-10.3634
▁Toward	-10.3646
▁seize	-10.3658
▁chest	-10.3662
▁seek	-10.3662
▁enthusiasm	-10.3662
▁yard	-10.3666
▁conviction	-10.3666
▁grief	-10.3668
▁consequence	-10.3669
▁uprising	-10.3669
▁petticoat	-10.367
▁enclosure	-10.367
▁measure	-10.367
▁patrol	-10.367
▁strike	-10.3674
▁apple	-10.3681
Not	-10.3684
▁lion	-10.3689
▁witness	-10.3706
▁expect	-10.3713
▁stick	-10.3716
▁distinguish	-10.3725
▁plaster	-10.3726
sou	-10.374
▁distinct	-10.3741
▁XVI	-10.3746
▁coin	-10.3746
▁Spanish	-10.3748
▁brazier	-10.3748
▁breeze	-10.3748
▁explanation	-10.3748
▁kitchen	-10.3748
▁vicinity	-10.3748
▁purple	-10.3748
▁centuries	-10.3748
▁portrait	-10.3748
▁striking	-10.3748
▁speedily	-10.3748
▁responded	-10.3748
▁obedience	-10.3748
▁therefore	-10.3749
▁redoubled	-10.3749
▁dining	-10.375
▁nineteenth	-10.375
▁mechanically	-10.375
▁destined	-10.3751
▁preferred	-10.3751
▁queer	-10.3751
▁XIV	-10.3752
▁ordinary	-10.3753
Merry	-10.3754
▁cries	-10.3754
▁dignity	-10.3755
▁Great	-10.3758
▁completely	-10.3759
▁Near	-10.3763
▁exact	-10.3764
▁kissed	-10.3766
▁profoundly	-10.3768
▁inspired	-10.3772
▁risen	-10.3776
▁Corinthe	-10.3778
▁uttering	-10.378
▁noble	-10.3787
▁sold	-10.3794
▁eleven	-10.3798
▁hearth	-10.3816
▁needed	-10.3818
8	-10.3821
▁shouts	-10.3831
▁finding	-10.3847
▁understanding	-10.3854
▁hide	-10.3856
▁fa	-10.3887
▁parts	-10.389
▁lanterns	-10.389
ctually	-10.3895
▁Court	-10.3905
▁groups	-10.391
▁Dro	-10.3917
▁Up	-10.392
▁follows	-10.3923
▁civil	-10.3926
▁plan	-10.3927
5	-10.3942
▁actions	-10.3956
▁ways	-10.3989
el	-10.3992
there	-10.4023
▁bill	-10.4053
▁flee	-10.4064
▁murmur	-10.4084
ism	-10.4085
▁1815	-10.4087
side	-10.4094
▁discharge	-10.4108
▁bonnet	-10.411
▁summit	-10.411
▁spark	-10.412
▁dialogue	-10.412
▁splendor	-10.412
▁sorrow	-10.4121
▁solitude	-10.4122
▁stove	-10.4123
▁highway	-10.4124
▁ignorance	-10.4127
▁spectacle	-10.4127
▁element	-10.4131
▁eagle	-10.4134
▁edge	-10.4135
▁cheek	-10.4136
▁mountain	-10.4138
▁scene	-10.4141
▁proceeding	-10.4141
▁perceiv	-10.4151
▁dressing	-10.4157
▁citizen	-10.4157
▁copy	-10.4183
▁assault	-10.4184
▁embrace	-10.4189
▁suspect	-10.4191
▁chambers	-10.4192
▁odd	-10.4199
▁push	-10.42
▁Azelma	-10.4202
▁Guelemer	-10.4202
▁azure	-10.4202
▁exquisite	-10.4202
▁prodigious	-10.4202
▁unprecedented	-10.4202
▁serenity	-10.4202
▁drank	-10.4202
▁rubbish	-10.4202
▁Although	-10.4202
▁shovel	-10.4203
▁plateau	-10.4203
▁isolated	-10.4203
▁married	-10.4203
▁bewildered	-10.4203
▁assistance	-10.4203
▁baker	-10.4203
▁emerging	-10.4203
▁excellent	-10.4203
▁constantly	-10.4203
▁recently	-10.4203
▁haughty	-10.4203
▁realities	-10.4204
▁bristling	-10.4204
▁bourgeoisie	-10.4204
▁irritated	-10.4205
▁assailants	-10.4205
▁faint	-10.4205
▁unfolded	-10.4205
▁speed	-10.4207
W	-10.4207
▁eternal	-10.4208
▁leaning	-10.421
▁displayed	-10.4211
▁burned	-10.4212
▁invented	-10.4213
▁Convention	-10.4213
▁acquired	-10.4213
▁promised	-10.4214
Look	-10.4214
▁treated	-10.4219
▁descending	-10.4226
▁prepared	-10.4229
▁inhabitants	-10.4229
▁newspapers	-10.4232
▁weary	-10.4232
▁goodness	-10.4233
▁den	-10.4236
▁troops	-10.4237
▁oneself	-10.4237
▁loaded	-10.4239
▁pupils	-10.4239
▁goodman	-10.424
▁ranks	-10.4241
▁heels	-10.4247
▁ma	-10.425
▁stable	-10.4251
▁bayonets	-10.4253
▁weight	-10.427
▁RE	-10.4274
▁ends	-10.4275
b	-10.4287
▁songs	-10.429
▁stated	-10.4301
▁band	-10.4305
▁vehicles	-10.4316
▁income	-10.4316
▁class	-10.4318
▁1815,	-10.4321
▁dense	-10.4329
▁weeks	-10.4337
▁belongs	-10.4348
▁AN	-10.4359
▁gain	-10.4361
▁results	-10.4397
▁official	-10.4411
▁beholds	-10.4419
▁habits	-10.442
▁alleys	-10.442
▁beat	-10.4448
Mur	-10.4471
▁issue	-10.4489
▁tables	-10.4526
do	-10.4528
▁riot	-10.4529
▁disappear	-10.4556
▁fight	-10.4567
▁enjoy	-10.4583
▁devour	-10.4584
▁author	-10.4584
▁dis	-10.4585
▁cesspool	-10.4586
▁cupboard	-10.4586
▁scale	-10.4587
▁diligence	-10.4593
▁criminal	-10.4593
▁buy	-10.4598
▁fool	-10.4601
▁profile	-10.4601
▁incident	-10.4602
▁animal	-10.4603
▁trial	-10.4604
▁personage	-10.4604
▁choose	-10.4604
▁trade	-10.4606
▁rascal	-10.4612
▁ribbon	-10.4613
▁Comte	-10.4619
▁circle	-10.4624
▁pane	-10.4626
▁usher	-10.4629
▁direct	-10.4633
.”_	-10.4635
▁accompanie	-10.4636
▁pray	-10.4641
▁scaffold	-10.4656
▁gallop	-10.4656
▁disorder	-10.4677
▁roads	-10.4677
▁occur	-10.4678
▁Volume	-10.4679
▁audience	-10.4679
▁identity	-10.4679
▁nowadays	-10.4679
▁afternoon	-10.4679
▁captain	-10.4679
▁jury	-10.4679
▁preparation	-10.4679
▁stature	-10.4679
▁politics	-10.4679
▁grated	-10.468
▁scamp	-10.468
▁redoubtable	-10.468
▁softly	-10.4681
▁ambush	-10.4683
▁Force	-10.4684
▁kindly	-10.4685
▁crushing	-10.4686
▁modesty	-10.4687
▁Café	-10.4689
▁Fauvent	-10.4689
▁Police	-10.4689
▁pride	-10.4689
▁admired	-10.4691
▁sang	-10.4692
▁disturbed	-10.4692
▁settled	-10.4692
▁avoided	-10.4693
▁energetic	-10.4694
▁captured	-10.4694
▁crowned	-10.4696
▁masked	-10.47
▁Brevet	-10.47
▁Death	-10.47
▁delivered	-10.4702
▁papers	-10.4702
▁Many	-10.4706
▁reserved	-10.4707
▁fearful	-10.4718
▁Four	-10.4721
▁charged	-10.4727
▁hunger	-10.4733
▁lover	-10.4734
▁viewed	-10.4736
▁Thou	-10.4741
▁brats	-10.4748
place	-10.4758
▁allowing	-10.4761
▁try	-10.4764
▁remaining	-10.4766
▁clock	-10.4773
two	-10.4778
R	-10.478
▁passions	-10.4785
▁neighbors	-10.4794
ive	-10.4798
▁prayers	-10.4798
▁locks	-10.4801
▁produces	-10.4805
▁glances	-10.4827
▁fists	-10.4827
▁FOR	-10.4852
▁officers	-10.4868
▁cane	-10.4873
Sir	-10.4874
▁aid	-10.4875
three	-10.4875
▁desires	-10.4881
▁que	-10.4889
▁efforts	-10.4901
ard	-10.4926
Because	-10.4941
▁limit	-10.495
▁balls	-10.4952
▁guards	-10.4964
B	-10.4972
▁thinks	-10.4982
▁squares	-10.4988
il	-10.4994
▁weak	-10.5045
▁venture	-10.5046
aux	-10.5046
ical	-10.505
▁personal	-10.5055
▁quiver	-10.5063
▁tremble	-10.5069
On	-10.5073
▁German	-10.5082
▁preserve	-10.5084
▁household	-10.5086
▁resistance	-10.5093
▁tip	-10.5094
▁cabriolet	-10.5096
▁resolution	-10.5096
▁protest	-10.5098
▁fold	-10.5099
▁share	-10.5099
▁romance	-10.5102
▁game	-10.5104
ch	-10.5113
▁throne	-10.5117
▁torture	-10.5128
ine	-10.5129
▁th	-10.5129
▁meat	-10.5146
▁climb	-10.5156
▁glow	-10.5163
▁XV	-10.5168
▁ch	-10.5169
▁timid	-10.5174
▁wonderful	-10.5174
JEAN	-10.5179
▁Invalides	-10.5179
▁gigantic	-10.5179
▁opportunity	-10.5179
▁Mestienne	-10.5179
▁fourteen	-10.5179
▁numerous	-10.5179
▁astonishment	-10.5179
▁copper	-10.5179
▁costume	-10.5179
▁gravity	-10.5179
▁random	-10.5179
▁stories	-10.5179
▁Beneath	-10.5179
▁indescribably	-10.5179
▁stupefied	-10.5179
▁authorities	-10.5179
▁chaos	-10.5179
▁passport	-10.5179
▁twice	-10.5179
▁Assizes	-10.518
▁procession	-10.518
▁serene	-10.518
▁THAT	-10.518
▁avoid	-10.518
▁succession	-10.518
▁mourning	-10.518
▁filth	-10.518
▁contrive	-10.5181
▁food	-10.5181
▁detached	-10.5181
▁bleeding	-10.5182
▁betrayed	-10.5182
▁wealthy	-10.5183
▁drag	-10.5183
▁regained	-10.5184
▁decidedly	-10.5184
▁kindness	-10.5184
▁abominable	-10.5184
▁designated	-10.5186
▁fence	-10.5186
▁embarrassed	-10.5187
▁hastened	-10.5187
▁brass	-10.5187
▁driven	-10.5188
▁February	-10.5189
▁Lafayette	-10.5189
▁Tuileries	-10.5189
▁admiration	-10.5189
▁scrutinized	-10.519
▁generally	-10.5192
▁cracked	-10.5194
▁hiding	-10.5195
▁adore	-10.5196
▁admire	-10.5197
▁judged	-10.5198
▁counter	-10.5199
▁reveren	-10.52
▁sole	-10.52
▁Colonel	-10.5201
▁delighted	-10.5203
▁bending	-10.5207
▁expected	-10.5209
▁searched	-10.5213
▁Bienvenu	-10.5213
▁lift	-10.5214
▁pell	-10.5228
:—“	-10.5231
▁comrades	-10.5231
▁limbs	-10.5233
▁planks	-10.5234
▁bottles	-10.5235
▁Et	-10.5238
▁students	-10.5238
les	-10.5239
w	-10.5244
▁keeping	-10.5247
▁BECOME	-10.5251
▁posted	-10.5259
▁mountains	-10.5262
▁cling	-10.5269
▁hut	-10.528
▁spectres	-10.5295
▁TWO	-10.5298
▁encounters	-10.5301
▁cases	-10.5313
▁telling	-10.5319
L	-10.5344
tently	-10.5346
▁shed	-10.5346
As	-10.5349
▁lend	-10.5351
ter	-10.5366
▁tu	-10.5373
▁sheets	-10.5383
▁due	-10.5396
▁ones	-10.5399
▁spit	-10.541
BY	-10.5442
Will	-10.5443
▁i	-10.5449
N	-10.5457
convict	-10.5458
G	-10.5475
▁walks	-10.549
ois	-10.5524
que	-10.5533
▁treat	-10.5558
facing	-10.5564
▁brothers	-10.5567
Your	-10.5571
▁wet	-10.5573
▁crack	-10.559
▁ha	-10.5606
▁title	-10.5612
▁manage	-10.5619
▁impression	-10.5623
▁obtain	-10.5625
▁festival	-10.5626
▁tyrant	-10.5627
▁obstacle	-10.5627
▁precaution	-10.5629
▁vo	-10.5629
▁lodging	-10.5631
▁salon	-10.5631
▁proof	-10.5637
▁skin	-10.5659
▁brat	-10.5667
ful	-10.5672
ius	-10.5675
?’	-10.568
▁returns	-10.5682
▁sit	-10.5682
▁busy	-10.5683
are	-10.5684
▁conduct	-10.5687
▁excess	-10.5696
▁courage	-10.5696
▁proud	-10.57
▁intrepid	-10.5704
▁Genappe	-10.5705
▁Polonceau	-10.5705
▁eternity	-10.5705
▁fiacre	-10.5705
▁imperceptible	-10.5705
▁knapsack	-10.5705
▁orchard	-10.5705
▁physiognomy	-10.5705
▁profession	-10.5705
▁tilbury	-10.5705
▁folks	-10.5705
▁burden	-10.5705
▁yourselves	-10.5705
▁Dahlia	-10.5705
▁Bougon	-10.5705
▁alias	-10.5705
▁guilty	-10.5705
▁pallor	-10.5706
▁move	-10.5706
▁stream	-10.5707
▁peculiarity	-10.5707
▁barracks	-10.5707
▁spent	-10.5707
lysées	-10.5707
▁applied	-10.5708
▁fought	-10.5708
▁remarkable	-10.5708
▁quality	-10.5708
▁barred	-10.5709
▁hurt	-10.571
▁agreement	-10.571
▁forgot	-10.571
▁conquered	-10.5711
▁gilded	-10.5712
▁respectful	-10.5712
▁failed	-10.5713
▁somewhere	-10.5713
rending	-10.5715
▁announced	-10.5715
▁silently	-10.5716
▁Vernon	-10.5716
▁Society	-10.5716
▁whiteness	-10.5717
▁planted	-10.5717
▁recovered	-10.5719
▁attracted	-10.572
▁suspected	-10.5722
▁alms	-10.5722
▁swans	-10.5722
▁fighting	-10.5723
▁suburbs	-10.5724
▁mingle	-10.5725
▁expressed	-10.5729
▁jug	-10.573
▁Never	-10.5731
ir	-10.5731
▁surprised	-10.5732
▁joined	-10.5733
▁graceful	-10.574
▁robbed	-10.5741
▁earn	-10.5741
▁mien	-10.5744
▁beating	-10.5745
▁clothed	-10.575
▁devotion	-10.5754
▁nearer	-10.5757
▁Ha	-10.5758
▁dreamed	-10.5759
ARE	-10.5763
▁hoarse	-10.5766
ling	-10.5779
▁New	-10.5781
▁borne	-10.5782
▁replying	-10.5782
▁spectacles	-10.5793
led	-10.5793
▁younger	-10.5799
▁signed	-10.581
mounted	-10.5842
▁chains	-10.5887
▁file	-10.5894
▁3	-10.5906
▁balance	-10.5915
▁1823	-10.5919
▁peasants	-10.5924
▁pistols	-10.5964
When	-10.5967
▁fish	-10.5973
▁priests	-10.5977
▁hot	-10.598
▁gates	-10.5982
▁undergo	-10.5986
Mademoiselle	-10.6009
▁ink	-10.6019
Of	-10.6026
▁sets	-10.6043
ade	-10.605
▁secrets	-10.6054
way	-10.6056
▁fellows	-10.6062
▁De	-10.6066
▁sentiment	-10.607
▁therein	-10.607
mong	-10.6098
franc	-10.612
▁rid	-10.6121
▁convicts	-10.6129
▁hang	-10.613
▁classic	-10.6148
▁gardens	-10.6151
▁PRO	-10.6172
▁thumb	-10.6172
▁whirlwind	-10.6174
▁package	-10.6175
▁enigma	-10.618
▁system	-10.618
▁lancer	-10.6183
▁division	-10.6183
▁gendarme	-10.6185
▁dwelling	-10.6195
▁philosopher	-10.6197
▁peoples	-10.6199
▁station	-10.62
▁nights	-10.6207
▁frame	-10.6222
▁enters	-10.6224
▁disturb	-10.6242
▁shape	-10.6245
▁discover	-10.6249
▁grimace	-10.6251
▁apparent	-10.6256
▁bitter	-10.6257
mell	-10.6259
▁Robespierre	-10.626
▁Vaugirard	-10.626
▁aperture	-10.626
▁labyrinth	-10.626
▁petrified	-10.626
▁reassured	-10.626
▁satisfaction	-10.626
▁tremendous	-10.626
▁wisdom	-10.626
▁Sacrament	-10.626
▁important	-10.626
▁ocean	-10.626
▁gratitude	-10.626
▁precious	-10.626
▁especially	-10.626
▁dragging	-10.626
▁funereal	-10.626
▁pillow	-10.626
▁tranquillity	-10.626
▁intoxication	-10.6261
▁succor	-10.6261
▁examining	-10.6261
▁hackney	-10.6261
▁pitiless	-10.6261
▁dilapidated	-10.6261
▁surprising	-10.6261
▁vanquished	-10.6261
▁leather	-10.6261
▁everybody	-10.6261
▁bundle	-10.6261
▁sovereignty	-10.6261
▁agitated	-10.6262
▁sorry	-10.6262
▁carefully	-10.6262
▁decision	-10.6263
▁eighteenth	-10.6263
▁inhabited	-10.6267
▁Bernardines	-10.6267
▁heroes	-10.6268
▁nice	-10.6268
▁yielded	-10.6269
▁Certain	-10.6269
▁constructed	-10.6269
▁confusedly	-10.627
▁protected	-10.6271
▁missing	-10.6271
▁reappeared	-10.6272
▁bodies	-10.6272
▁gallery	-10.6272
▁malicious	-10.6272
▁Rousseau	-10.6272
▁contact	-10.6272
▁lamentable	-10.6272
▁Claquesous	-10.6272
▁copyright	-10.6272
▁considered	-10.6273
▁agreed	-10.6273
▁knocked	-10.6273
▁waist	-10.6274
▁truly	-10.6275
▁attained	-10.6277
▁infamous	-10.6277
▁earned	-10.6284
▁shapeless	-10.6285
▁strides	-10.6285
▁helped	-10.6287
▁regarded	-10.6287
▁supported	-10.6289
▁counted	-10.629
▁Friends	-10.6292
▁se	-10.6293
▁assuredly	-10.6297
▁ship	-10.6298
!_	-10.6306
▁outlet	-10.6308
▁verses	-10.6309
▁ruined	-10.631
▁guarded	-10.632
▁concerns	-10.6329
▁despairing	-10.6333
▁dreaming	-10.6336
▁Something	-10.6342
uai	-10.6344
▁paying	-10.6349
▁brief	-10.6349
▁eating	-10.6356
▁dan	-10.6361
IT	-10.6362
▁manners	-10.6366
▁happens	-10.6374
▁calling	-10.6382
.’”	-10.6386
US	-10.6392
▁interests	-10.6393
▁finish	-10.6397
ME	-10.6398
▁drops	-10.6413
▁beg	-10.643
▁coach	-10.6437
▁cake	-10.6455
hould	-10.6463
▁leads	-10.6474
they	-10.6476
▁outer	-10.6498
▁hats	-10.651
▁causes	-10.6522
▁n	-10.6525
▁per	-10.6536
ver	-10.6568
open	-10.6569
she	-10.6581
Louis	-10.659
box	-10.6591
▁FRO	-10.6594
ia	-10.6629
▁occasions	-10.6637
▁heavens	-10.6646
▁spots	-10.6661
be	-10.6664
ad	-10.6702
▁sweep	-10.6719
▁require	-10.6741
▁slip	-10.6744
▁refuse	-10.675
▁hid	-10.6751
▁perfume	-10.6757
▁steel	-10.6758
▁basin	-10.6759
▁smell	-10.6761
▁size	-10.6762
▁knot	-10.6763
▁edifice	-10.6763
▁Roman	-10.6763
▁sentence	-10.6764
▁concern	-10.6764
▁mark	-10.6766
▁Lord	-10.6767
▁inscription	-10.6768
▁visage	-10.6768
▁expedient	-10.6769
▁create	-10.677
▁handful	-10.6773
▁faubourg	-10.6773
▁beam	-10.6773
▁battalion	-10.6773
▁urchin	-10.6776
▁project	-10.6777
my	-10.6778
▁cage	-10.6782
▁curtain	-10.6783
▁boot	-10.6791
1	-10.6792
▁saint	-10.6792
▁bestow	-10.6802
▁vanish	-10.6809
▁natures	-10.6811
▁comprehend	-10.6815
▁fair	-10.6824
▁Night	-10.6834
▁agree	-10.6834
▁recover	-10.6835
▁hesitate	-10.6836
▁Pr	-10.6838
▁loose	-10.684
▁pole	-10.6843
▁breach	-10.6844
▁precise	-10.6845
▁music	-10.6845
ts	-10.6848
▁Bigrenaille	-10.6849
▁Cardinal	-10.6849
▁Spain	-10.6849
▁decisive	-10.6849
▁marvellous	-10.6849
▁quantity	-10.6849
▁vulgar	-10.6849
▁Plutarque	-10.6849
▁characteristic	-10.6849
▁eldest	-10.6849
▁poignant	-10.6849
▁perspiration	-10.6849
▁veritable	-10.6849
▁immensity	-10.6849
▁threadbare	-10.6849
▁loaf	-10.6849
▁exclamation	-10.6849
▁severity	-10.6849
▁brink	-10.6849
▁desirous	-10.6849
▁haggard	-10.6849
▁circulation	-10.6849
▁suspicion	-10.6849
▁swept	-10.6849
▁malady	-10.6849
▁Marais	-10.6849
▁memories	-10.6849
▁considerable	-10.685
▁adorable	-10.685
▁Curé	-10.685
▁frequently	-10.685
▁disappearance	-10.685
▁engulfed	-10.685
▁toilet	-10.685
▁resolutely	-10.685
▁background	-10.6851
▁Light	-10.6851
▁factory	-10.6851
▁tattered	-10.6851
▁grumbled	-10.6851
▁attentively	-10.6852
▁adopted	-10.6852
▁motion	-10.6852
▁darted	-10.6853
▁ornamented	-10.6853
▁presents	-10.6853
▁taught	-10.6854
▁introduced	-10.6854
▁vocal	-10.6854
▁beaten	-10.6854
haired	-10.6854
▁purchased	-10.6856
▁Aunt	-10.6857
▁executioner	-10.6857
▁augmented	-10.6857
▁XII	-10.6858
▁mounting	-10.6859
▁successive	-10.6859
▁golden	-10.686
▁XIII	-10.686
▁chilled	-10.686
▁parlor	-10.6861
▁signifies	-10.6861
▁loving	-10.6861
▁archbishop	-10.6862
▁roughly	-10.6862
▁hesitated	-10.6862
▁advice	-10.6863
▁warned	-10.6865
▁“‘	-10.6866
▁blessed	-10.6866
▁freely	-10.6866
▁discharged	-10.6866
▁accost	-10.6868
▁inspire	-10.687
▁lair	-10.6872
▁hinges	-10.6872
▁greatest	-10.6874
either	-10.6875
▁respectable	-10.6879
▁constitute	-10.6883
▁conjectures	-10.6886
▁Old	-10.6891
▁Without	-10.6893
ras	-10.6895
▁reaching	-10.6902
▁communicate	-10.6902
▁Ursule	-10.6904
▁expenses	-10.6906
▁pretend	-10.691
▁principles	-10.6911
▁sentinels	-10.6911
▁brown	-10.6911
▁circumstances	-10.6915
▁curtains	-10.6924
▁battalions	-10.6925
▁board	-10.6929
ally	-10.6931
▁suit	-10.6932
▁suppose	-10.6933
▁beloved	-10.6938
▁apples	-10.6949
▁strikes	-10.6951
▁weeping	-10.6963
ais	-10.6963
▁beams	-10.6966
▁accents	-10.6969
▁regiments	-10.697
▁rays	-10.6971
▁peaceful	-10.6972
▁nest	-10.698
▁shades	-10.6981
▁workman	-10.6982
▁bones	-10.6982
▁agents	-10.7019
age	-10.702
▁bow	-10.702
ou	-10.7022
▁hate	-10.7023
▁boys	-10.703
ons	-10.7036
▁bounds	-10.707
AN	-10.7084
▁worked	-10.7108
▁masters	-10.711
▁shocks	-10.712
▁changes	-10.7122
these	-10.7129
▁crimes	-10.7176
entered	-10.7193
▁faults	-10.7195
▁loss	-10.7207
▁whip	-10.7217
▁shops	-10.7218
Monseigneur	-10.7225
ar	-10.723
IS	-10.7247
bordered	-10.7251
▁fat	-10.7269
U	-10.7282
▁rooms	-10.7286
▁hero	-10.7292
▁plot	-10.7299
▁tore	-10.7304
O	-10.7339
▁appearances	-10.7355
▁promise	-10.7356
ut	-10.736
▁reign	-10.7364
▁forces	-10.7375
▁chestnut	-10.738
▁cathedral	-10.7388
▁newcomer	-10.7391
▁partition	-10.7391
▁NOT	-10.7392
▁machine	-10.7395
▁giant	-10.7397
▁drawer	-10.7402
▁vessel	-10.7406
▁construction	-10.7406
▁Sunday	-10.7408
▁carter	-10.7413
▁cook	-10.7421
▁meeting	-10.7432
▁deed	-10.7438
▁obey	-10.744
▁attend	-10.7448
▁drive	-10.7453
▁track	-10.7459
▁correct	-10.7461
▁nineteen	-10.747
▁tumultuous	-10.747
▁sixteen	-10.747
▁sharp	-10.747
▁credit	-10.747
▁stout	-10.7471
▁indistinct	-10.7471
éphine	-10.7474
▁Cabuc	-10.7474
▁Faverolles	-10.7474
▁Nivelles	-10.7474
▁episcopa	-10.7474
▁equivalent	-10.7474
▁fancied	-10.7474
▁furnace	-10.7474
▁landlord	-10.7474
▁municipal	-10.7474
▁piercing	-10.7474
▁GOOD	-10.7474
▁Scaufflaire	-10.7474
▁austere	-10.7474
▁enthusiastic	-10.7474
▁crisis	-10.7474
▁timber	-10.7474
trière	-10.7474
▁request	-10.7474
▁Greek	-10.7474
▁examination	-10.7474
▁robust	-10.7474
▁livres	-10.7474
▁apron	-10.7474
▁prefecture	-10.7474
▁crucifix	-10.7474
▁resemblance	-10.7474
▁guillotine	-10.7474
▁observation	-10.7474
▁royalty	-10.7474
▁flew	-10.7474
▁industry	-10.7474
▁traversing	-10.7474
▁pensive	-10.7474
▁confession	-10.7474
▁advancing	-10.7474
▁Minister	-10.7475
▁inquiries	-10.7475
▁pink	-10.7475
▁silk	-10.7475
▁stirred	-10.7475
▁legal	-10.7475
▁latch	-10.7475
▁grandson	-10.7475
▁valley	-10.7475
▁sunlight	-10.7476
▁folly	-10.7476
▁workingman	-10.7476
▁smoking	-10.7476
▁Later	-10.7476
▁encumbered	-10.7476
Really	-10.7477
▁crouching	-10.7477
▁straightened	-10.7478
▁highest	-10.7478
▁jade	-10.7478
▁Meaux	-10.7478
▁drunken	-10.7478
▁wants	-10.7479
▁convey	-10.7479
▁inquire	-10.748
▁described	-10.748
▁floating	-10.748
▁hired	-10.748
▁installed	-10.7481
▁departed	-10.7481
▁Germany	-10.7482
▁sketched	-10.7483
▁dusk	-10.7483
▁shivering	-10.7484
▁metres	-10.7484
▁adjoining	-10.7484
▁accused	-10.7484
▁unless	-10.7484
▁indulged	-10.7484
▁contracted	-10.7485
▁polished	-10.7485
▁parties	-10.7486
▁fountain	-10.7487
▁Archive	-10.7487
▁foolish	-10.7487
▁certainty	-10.7487
▁amiable	-10.7487
▁violently	-10.7488
▁envelope	-10.749
▁shared	-10.7491
▁dragoons	-10.7491
▁collected	-10.7491
▁trying	-10.7493
▁warning	-10.7493
▁classes	-10.7493
▁homely	-10.7494
▁quivering	-10.7496
▁waves	-10.7497
▁awaiting	-10.7498
▁dung	-10.7502
▁commanded	-10.7502
▁retreating	-10.7512
verge	-10.7512
▁afresh	-10.7512
▁offering	-10.7514
▁Bourbons	-10.753
▁Through	-10.7534
TTLE	-10.7535
▁States	-10.7535
▁wheeled	-10.7544
▁Under	-10.7546
▁goal	-10.7549
EN	-10.7552
▁informed	-10.7552
▁philosophers	-10.7559
▁Tuesday	-10.7563
Marius	-10.7575
▁lodgings	-10.7577
▁quit	-10.7581
▁alas	-10.7582
NESS	-10.7584
▁warn	-10.7587
▁traces	-10.7596
▁problems	-10.7599
▁winding	-10.7601
▁judges	-10.761
▁’	-10.7613
▁mere	-10.7614
▁gleams	-10.7656
▁servants	-10.7667
▁Guards	-10.7668
AIR	-10.7669
▁skirt	-10.7669
▁ruins	-10.7682
▁yours	-10.7683
losing	-10.7686
▁prowl	-10.7699
▁grows	-10.7725
▁similar	-10.7735
▁spirits	-10.7742
▁rises	-10.7747
▁Men	-10.7751
▁Mon	-10.7757
▁seconds	-10.7767
▁lace	-10.7767
▁objects	-10.7779
▁bend	-10.7788
RUE	-10.7796
land	-10.7829
past	-10.7853
Hold	-10.7876
Nothing	-10.7887
▁Sal	-10.7891
Give	-10.7892
Long	-10.7896
Martin	-10.7899
quarters	-10.7915
▁fathers	-10.7919
▁ring	-10.7925
▁local	-10.7942
▁opens	-10.7956
▁clean	-10.7973
▁replace	-10.798
IX	-10.7999
▁succeed	-10.8001
▁price	-10.8045
▁penetrate	-10.8045
Benedictines	-10.8045
▁shipwreck	-10.8046
▁suffice	-10.8051
▁magistrate	-10.8054
▁appetite	-10.8054
▁funeral	-10.8054
▁gutter	-10.8059
▁Royalist	-10.806
▁historian	-10.8062
who	-10.8062
▁brigade	-10.8063
▁squadron	-10.8063
▁phase	-10.8064
▁circumstance	-10.8065
▁bayonet	-10.8065
▁insurgent	-10.8065
▁prowler	-10.8066
holes	-10.807
▁furnish	-10.8078
▁leader	-10.8078
▁toward	-10.8078
▁bottle	-10.8079
▁roses	-10.8084
▁plank	-10.8096
▁north	-10.8102
VOLU	-10.8104
▁discuss	-10.8117
▁thinker	-10.8121
▁shower	-10.8131
▁jealous	-10.8133
▁omnibus	-10.8134
▁mechanical	-10.8136
▁unjust	-10.8137
▁access	-10.8137
▁safe	-10.8138
▁logic	-10.8139
▁idiot	-10.814
▁Brussels	-10.814
▁Laffitte	-10.814
▁antechamber	-10.814
▁benefactor	-10.814
▁conflagration	-10.814
▁misshapen	-10.814
▁shepherd	-10.814
▁thirteen	-10.814
▁exhibited	-10.814
▁shawl	-10.814
▁brushwood	-10.814
▁crumbling	-10.814
▁milk	-10.814
▁unhealthy	-10.814
▁Prefecture	-10.814
▁veneration	-10.814
▁tempest	-10.814
▁network	-10.814
▁blew	-10.8141
▁penalty	-10.8141
▁instance	-10.8141
▁defence	-10.8141
▁repulsive	-10.8141
▁dripping	-10.8141
▁United	-10.8141
▁slightest	-10.8141
▁woke	-10.8141
▁bravery	-10.8141
▁weighed	-10.8143
▁demolished	-10.8143
▁transfigured	-10.8143
▁mouse	-10.8144
▁scattered	-10.8144
▁calculated	-10.8144
▁punished	-10.8144
▁incapable	-10.8145
▁effaced	-10.8145
▁terminated	-10.8146
▁wrinkled	-10.8146
▁bald	-10.8148
▁waking	-10.8148
▁contrast	-10.8148
▁surveyed	-10.8149
▁prejudices	-10.8149
▁anywhere	-10.8149
▁Porte	-10.815
▁appeal	-10.815
▁impulse	-10.815
▁wars	-10.8152
▁swallowed	-10.8152
▁replies	-10.8152
▁tranquilly	-10.8152
▁prefect	-10.8153
▁elegant	-10.8153
▁observer	-10.8154
▁deaf	-10.8154
▁thieves	-10.8154
▁Blondeau	-10.8154
▁Marguerite	-10.8154
▁wheelwright	-10.8154
▁rarely	-10.8154
▁printed	-10.8154
▁senator	-10.8155
▁plainly	-10.8155
▁willing	-10.8157
▁healthy	-10.8159
▁footsteps	-10.816
▁conducted	-10.816
▁lint	-10.8161
▁harnessed	-10.8161
▁mercy	-10.8161
▁obtained	-10.8161
▁witnesses	-10.8162
▁confined	-10.8162
▁sooner	-10.8162
▁managed	-10.8168
▁list	-10.8169
▁Progress	-10.817
▁lieutenant	-10.817
▁Notre	-10.817
▁distrust	-10.8172
▁strangely	-10.8173
▁hither	-10.8174
▁spectators	-10.8175
▁e	-10.8177
▁ripe	-10.8178
▁lively	-10.8179
▁dine	-10.8181
ONE	-10.8182
Just	-10.8188
▁trumpets	-10.8188
▁baron	-10.8192
▁Jeanne	-10.8195
▁clothing	-10.82
▁flings	-10.8209
use	-10.8211
▁rattle	-10.8215
▁qui	-10.8216
▁leaders	-10.8225
▁fix	-10.8228
LE	-10.823
▁tread	-10.8246
▁cheeks	-10.8253
▁crossing	-10.8253
▁hated	-10.8255
▁Lon	-10.8262
▁plant	-10.8264
▁Make	-10.8268
▁phantoms	-10.8269
▁reject	-10.8274
▁poet	-10.8275
▁mat	-10.8283
▁row	-10.8299
long	-10.83
x	-10.8324
▁heights	-10.8342
▁di	-10.8346
not	-10.8348
▁g	-10.8357
▁March	-10.8365
▁Martin	-10.8389
▁travellers	-10.8395
▁riches	-10.8403
▁soft	-10.8412
ish	-10.8422
ON	-10.843
bout	-10.8459
▁Or	-10.8461
▁woods	-10.8478
▁”	-10.8492
hand	-10.8515
king	-10.8515
▁ordered	-10.8532
how	-10.8533
▁cannons	-10.8538
▁source	-10.8554
▁scar	-10.8571
ist	-10.8592
flowers	-10.8609
school	-10.8612
coach	-10.8613
Listen	-10.8614
).	-10.8669
ge	-10.8681
was	-10.8686
▁scrap	-10.8724
▁resist	-10.873
▁hue	-10.8734
▁knock	-10.8735
OR	-10.8747
▁mon	-10.8752
▁increase	-10.8754
?—	-10.8755
▁roar	-10.8759
▁fusillade	-10.876
▁victim	-10.8761
▁st	-10.8761
▁indicate	-10.8762
▁debt	-10.8765
▁clamor	-10.8772
▁accident	-10.8773
▁Al	-10.8773
▁sensation	-10.8775
▁trunk	-10.8775
▁metaphor	-10.8775
▁growth	-10.8778
▁illusion	-10.8778
▁sentinel	-10.8779
▁comrade	-10.8779
▁cartridge	-10.878
▁limb	-10.8781
▁fling	-10.8791
nce	-10.8792
▁farm	-10.8792
▁principle	-10.8793
▁Bo	-10.8793
▁blade	-10.8794
▁treasure	-10.8798
ial	-10.8805
▁sa	-10.8813
▁learn	-10.8821
▁cough	-10.8824
▁withdraw	-10.8825
▁barefoot	-10.8839
▁overflow	-10.8839
▁deposit	-10.8841
▁blame	-10.8842
▁chill	-10.8843
▁dwell	-10.8843
▁execution	-10.8845
▁chim	-10.8847
▁cunning	-10.8849
▁superb	-10.885
▁previous	-10.8851
▁consider	-10.8851
▁eighteen	-10.8852
▁mode	-10.8854
▁compassion	-10.8855
▁council	-10.8855
▁Meanwhile	-10.8855
▁VALJEAN	-10.8855
▁Virgin	-10.8855
▁consequently	-10.8855
▁genuine	-10.8855
▁illustrious	-10.8855
▁indispensable	-10.8855
▁mysteries	-10.8855
▁nonetheless	-10.8855
▁pavilion	-10.8855
▁phenomenon	-10.8855
▁studied	-10.8855
▁suicide	-10.8855
▁uneasiness	-10.8855
▁expiation	-10.8855
▁library	-10.8855
▁luxury	-10.8855
▁possibility	-10.8855
▁spinster	-10.8855
▁granite	-10.8855
▁impassive	-10.8855
▁rabble	-10.8855
▁judgment	-10.8855
▁burial	-10.8855
▁Danton	-10.8855
▁stupor	-10.8855
▁review	-10.8855
▁penetrating	-10.8855
▁majority	-10.8855
▁cheese	-10.8855
▁embarrassment	-10.8855
▁medium	-10.8855
▁dwelt	-10.8855
▁unhappiness	-10.8855
▁shining	-10.8855
▁including	-10.8855
▁charter	-10.8855
▁clung	-10.8855
▁voluptuousness	-10.8855
▁upstairs	-10.8855
▁Woe	-10.8855
▁twinkling	-10.8855
▁rustic	-10.8855
▁resembling	-10.8855
▁benefit	-10.8856
▁reduced	-10.8856
▁frock	-10.8856
▁elevation	-10.8856
▁chaste	-10.8856
▁convinced	-10.8856
▁divided	-10.8856
▁inexpressible	-10.8856
▁Dante	-10.8856
▁yawning	-10.8857
▁cities	-10.8858
▁inundated	-10.8858
▁indifferent	-10.8858
▁madness	-10.8858
▁consciousness	-10.8859
▁hostile	-10.8859
▁commode	-10.8859
▁gentleness	-10.8859
▁dim	-10.8859
▁elevated	-10.886
▁blindness	-10.886
.”—“	-10.886
▁ragged	-10.886
▁Ney	-10.8861
▁slight	-10.8862
▁gathered	-10.8862
▁resolved	-10.8863
▁affected	-10.8863
▁restored	-10.8863
▁shivered	-10.8865
▁outfit	-10.8865
▁flowed	-10.8865
▁usually	-10.8865
▁retained	-10.8865
▁slow	-10.8866
▁related	-10.8867
▁properly	-10.8867
▁hunted	-10.8868
▁stormy	-10.8869
▁Between	-10.8869
▁apparently	-10.8869
▁ridiculous	-10.8869
▁staff	-10.8869
▁conventionary	-10.8869
Can	-10.8869
▁naturally	-10.887
▁denounced	-10.887
▁workmen	-10.887
▁flashes	-10.8871
▁threatening	-10.8871
▁soaked	-10.8871
▁contemplate	-10.8871
▁pack	-10.8872
▁cherished	-10.8873
▁gained	-10.8873
▁wretches	-10.8875
▁hydra	-10.888
▁luck	-10.8882
▁maid	-10.8882
▁expecting	-10.8884
▁extend	-10.8886
▁lights	-10.8886
▁companions	-10.8889
OLD	-10.8892
▁imagined	-10.8892
RE	-10.8893
▁disgrace	-10.8895
▁strict	-10.8897
▁closely	-10.8898
▁backs	-10.8901
▁foam	-10.8901
so	-10.8902
▁Fran	-10.8906
▁relatives	-10.8907
▁gravely	-10.8908
▁accomplish	-10.8911
▁discipline	-10.892
▁mounts	-10.8921
▁desert	-10.8922
▁marched	-10.8923
▁lucky	-10.8927
▁rolled	-10.893
▁plants	-10.8932
end	-10.8949
▁glasses	-10.8952
▁proofs	-10.8954
▁Our	-10.8959
▁rascals	-10.8966
▁lent	-10.8966
▁bark	-10.8967
▁damp	-10.897
▁Again	-10.8971
▁larger	-10.8972
▁total	-10.8972
▁morrow	-10.898
▁speaks	-10.9032
▁slave	-10.9035
▁(_	-10.9038
▁Thanks	-10.9051
▁flank	-10.9052
▁Certainly	-10.9053
▁threads	-10.9053
ars	-10.9068
▁adventures	-10.9074
▁degrees	-10.9078
▁visits	-10.9092
ated	-10.9114
▁beasts	-10.9121
▁hill	-10.9127
▁Give	-10.9133
▁rang	-10.9149
▁verse	-10.9157
▁heed	-10.9164
▁remind	-10.917
▁mis	-10.9173
her	-10.9174
▁Bar	-10.9177
▁thank	-10.9179
▁generals	-10.919
▁lied	-10.9192
maker	-10.9196
work	-10.9211
▁eccentric	-10.9215
▁south	-10.9223
▁ropes	-10.9224
▁walled	-10.9229
held	-10.925
▁Will	-10.9275
▁WHO	-10.9277
apped	-10.9304
red	-10.9305
stone	-10.9309
▁arch	-10.9313
▁pointing	-10.9316
der	-10.9346
▁porte	-10.935
▁wan	-10.9358
▁depend	-10.9366
AL	-10.9376
em	-10.9396
Does	-10.9414
▁origin	-10.9429
▁carriages	-10.9441
HAT	-10.9444
balls	-10.9448
emitted	-10.9452
had	-10.9464
seven	-10.9471
▁rivet	-10.9473
▁observe	-10.9498
▁eclipse	-10.9522
▁separate	-10.9526
▁tradition	-10.9537
▁Italian	-10.9538
▁hammer	-10.9539
▁syllable	-10.954
▁intention	-10.9541
▁accompani	-10.9544
▁volume	-10.9545
▁republic	-10.9546
▁student	-10.9549
▁expense	-10.9549
▁league	-10.955
▁Prussian	-10.955
▁bull	-10.9553
▁flood	-10.9554
rang	-10.9554
▁prince	-10.9555
,”—	-10.9557
▁familiar	-10.9557
▁demon	-10.9558
▁ca	-10.9572
▁jest	-10.9575
▁State	-10.9581
▁ice	-10.9586
▁exit	-10.9586
id	-10.9591
▁blond	-10.9591
▁merchant	-10.9595
▁stroke	-10.9597
▁ate	-10.9599
▁protect	-10.9609
▁rifle	-10.9612
▁cease	-10.9615
▁exile	-10.9615
▁prepare	-10.9616
▁disguise	-10.9616
▁trench	-10.9618
▁grant	-10.9619
▁immediate	-10.962
▁triumphant	-10.962
▁quick	-10.962
▁seventeen	-10.962
▁habitual	-10.9621
▁prompt	-10.9621
▁fright	-10.9622
▁denounce	-10.9623
▁widow	-10.9623
▁Building	-10.9624
▁Charlemagne	-10.9624
▁Crucifixion	-10.9624
▁Greece	-10.9624
▁Literary	-10.9624
▁Marengo	-10.9624
▁audacity	-10.9624
▁benevolent	-10.9624
▁definitive	-10.9624
▁dialect	-10.9624
▁disagreeable	-10.9624
▁imperturbable	-10.9624
▁implacable	-10.9624
▁irresistible	-10.9624
▁quagmire	-10.9624
▁sceptre	-10.9624
▁tobacco	-10.9624
▁unforeseen	-10.9624
▁Brutus	-10.9624
▁mixture	-10.9624
▁pretext	-10.9624
▁copies	-10.9624
▁parapet	-10.9624
▁chapter	-10.9624
▁Henri	-10.9624
▁ecstasies	-10.9624
▁Title	-10.9624
▁impenetrable	-10.9624
▁perchance	-10.9624
▁Chelles	-10.9624
▁probity	-10.9624
▁neglect	-10.9624
▁pressure	-10.9624
▁Sewer	-10.9624
▁Plantes	-10.9624
▁sprung	-10.9624
▁inexorable	-10.9624
▁purity	-10.9624
▁occupy	-10.9624
▁signature	-10.9624
▁clenched	-10.9624
▁aurora	-10.9624
▁collection	-10.9625
▁horseback	-10.9625
▁transition	-10.9625
▁description	-10.9625
▁Having	-10.9625
▁thirst	-10.9625
▁nonsense	-10.9625
▁indignation	-10.9625
▁diocese	-10.9625
▁massive	-10.9625
▁concluded	-10.9626
▁devoted	-10.9627
▁mixed	-10.9627
▁entangled	-10.9627
▁dozen	-10.9628
▁dried	-10.9628
▁excessive	-10.9629
▁Les	-10.9629
▁sweetness	-10.9629
▁maskers	-10.9629
▁Both	-10.963
▁realized	-10.9631
▁donations	-10.9631
▁shaken	-10.9633
▁ambition	-10.9634
▁skilful	-10.9634
▁poured	-10.9634
▁bought	-10.9634
▁abroad	-10.9635
▁undertaker	-10.9636
▁coffer	-10.9636
▁firmly	-10.9636
▁humor	-10.9636
▁ingenuous	-10.9637
▁Babylone	-10.9638
▁destroyed	-10.9638
▁HOUSE	-10.9639
▁Shrove	-10.9639
▁despot	-10.9639
▁Lamarque	-10.9639
▁Chenildieu	-10.9639
▁Cochepaille	-10.9639
▁shone	-10.9639
▁elderly	-10.9642
▁legitimate	-10.9643
▁declare	-10.9643
▁pressing	-10.9644
▁suited	-10.9645
▁dined	-10.9645
▁regulations	-10.9646
▁bathed	-10.9646
▁momentary	-10.9646
▁embraced	-10.9647
▁mantle	-10.9648
▁dragon	-10.9648
▁paws	-10.9648
▁climbed	-10.9649
▁caps	-10.9649
▁climbing	-10.9652
▁granted	-10.9652
▁witnessed	-10.9653
▁defended	-10.9654
▁fatigued	-10.9658
▁lacked	-10.9661
▁joys	-10.9662
▁swear	-10.9663
▁claws	-10.9663
▁ravine	-10.9664
▁hears	-10.9665
▁smaller	-10.9669
▁recess	-10.967
▁souvenirs	-10.967
▁pipe	-10.9675
▁Fabantou	-10.9677
▁throwing	-10.9681
▁catching	-10.9681
▁sobs	-10.9684
APT	-10.9689
▁fifth	-10.9697
▁bloody	-10.9698
▁press	-10.97
▁blowing	-10.9701
▁CON	-10.971
▁Right	-10.971
rs	-10.9714
au	-10.9725
ble	-10.9728
tic	-10.9731
▁thrusting	-10.9732
▁NO	-10.9738
▁contract	-10.9743
▁182	-10.9744
▁rained	-10.9748
ai	-10.9752
▁inner	-10.9753
▁rows	-10.9754
▁scenes	-10.9765
▁reappear	-10.9768
_.”	-10.9771
▁demands	-10.978
▁page	-10.9784
▁Petite	-10.9795
▁questioned	-10.9795
▁car	-10.98
page	-10.9802
ssed	-10.9806
pital	-10.9812
▁conditions	-10.9817
▁barriers	-10.9827
▁offers	-10.983
▁breathless	-10.9835
▁AS	-10.9852
▁fumble	-10.9855
▁pin	-10.9869
▁forming	-10.9869
▁Sh	-10.9881
▁Listen	-10.989
▁reflections	-10.9897
▁aspects	-10.9898
ait	-10.9903
line	-10.9905
▁wa	-10.9911
▁sh	-10.992
▁commit	-10.9921
▁shots	-10.9929
nd	-10.9932
▁au	-10.9976
ian	-10.9987
cap	-10.9995
▁eats	-11.0015
went	-11.0018
▁Long	-11.0034
▁attach	-11.0054
go	-11.0064
▁quitt	-11.0073
▁rains	-11.0073
made	-11.0084
▁abound	-11.0097
carriage	-11.011
▁boulevards	-11.0113
such	-11.0151
▁holds	-11.0155
Germain	-11.0183
corner	-11.0189
im	-11.0189
▁tower	-11.0194
After	-11.0196
With	-11.0205
general	-11.0206
▁See	-11.021
Did	-11.0219
breaking	-11.0223
Never	-11.0226
axe	-11.0245
ped	-11.0256
▁cuts	-11.026
▁10	-11.0266
▁disdain	-11.0275
▁Re	-11.0298
▁fortress	-11.0303
▁TH	-11.0322
▁nurse	-11.0329
▁abandon	-11.0329
▁load	-11.034
▁rout	-11.0342
3,	-11.0348
▁villain	-11.0349
▁relate	-11.0355
▁disaster	-11.0363
woman	-11.0365
▁travel	-11.0368
▁directions	-11.037
▁privilege	-11.0371
▁tremor	-11.0372
▁operation	-11.0375
▁tail	-11.0375
▁reserve	-11.0375
▁charm	-11.0375
▁trifle	-11.0375
picker	-11.0376
▁offence	-11.0376
▁orphan	-11.0377
▁pallet	-11.0377
▁brute	-11.0378
▁amuse	-11.0379
▁monk	-11.038
▁Bourbon	-11.0382
▁salt	-11.0385
▁grain	-11.0392
▁soup	-11.0395
▁oath	-11.0396
▁arise	-11.0398
▁fog	-11.0399
umbled	-11.04
▁dreamer	-11.04
Hey	-11.0406
▁scrutiniz	-11.0407
▁trust	-11.0418
▁display	-11.0424
yard	-11.0427
ily	-11.0428
ehind	-11.0432
▁reflect	-11.0434
▁scratch	-11.0435
▁stretch	-11.0438
▁confess	-11.0439
▁Bernard	-11.044
▁afford	-11.0441
everal	-11.0441
▁tones	-11.0441
▁destroy	-11.0442
▁pluck	-11.0444
▁pronounce	-11.0446
▁peer	-11.0446
,”_	-11.0448
▁wealth	-11.045
▁chose	-11.0451
▁indignant	-11.0452
▁attentive	-11.0453
▁steep	-11.0456
▁rank	-11.0457
umber	-11.0457
▁SECOND	-11.0457
JAVERT	-11.0457
▁America	-11.0457
▁Bruneseau	-11.0457
▁Government	-11.0457
▁SEVENTH	-11.0457
▁Suddenly	-11.0457
▁Utopia	-11.0457
▁Venice	-11.0457
▁admirably	-11.0457
▁consternation	-11.0457
▁dizzy	-11.0457
▁egotism	-11.0457
▁feminine	-11.0457
▁infamy	-11.0457
▁ingenious	-11.0457
▁muzzle	-11.0457
▁pinioned	-11.0457
▁prominent	-11.0457
▁valise	-11.0457
Ouest	-11.0457
▁knelt	-11.0457
▁variety	-11.0457
▁awoke	-11.0457
▁fantastic	-11.0457
▁mendicant	-11.0457
▁sepulchral	-11.0457
▁residence	-11.0457
▁influence	-11.0457
▁necessarily	-11.0457
▁vexed	-11.0457
▁Slang	-11.0457
▁charcoal	-11.0457
▁whitish	-11.0457
▁EIGHTH	-11.0457
▁intersection	-11.0457
▁FIFT	-11.0457
▁Fleming	-11.0457
▁cousin	-11.0457
▁Louvre	-11.0457
▁Whether	-11.0457
▁conclusion	-11.0457
▁denied	-11.0457
▁inexhaustible	-11.0457
▁Adoration	-11.0457
▁agitation	-11.0457
▁exterior	-11.0457
▁slender	-11.0457
▁globe	-11.0457
▁prudence	-11.0457
▁snuff	-11.0457
▁Life	-11.0457
▁vegetation	-11.0457
▁nickname	-11.0457
▁Legion	-11.0457
▁circuit	-11.0457
▁safety	-11.0457
▁dynasty	-11.0457
▁heroism	-11.0458
▁significant	-11.0458
▁flaming	-11.0458
eau	-11.0458
▁interrogation	-11.0458
▁forgetfulness	-11.0458
▁feverish	-11.0458
▁forehead	-11.0458
▁driving	-11.0458
▁paved	-11.0458
▁unheard	-11.0458
▁convulsively	-11.0458
▁pattern	-11.0458
▁ninety	-11.0458
▁menacing	-11.0458
▁modest	-11.0459
▁condemnation	-11.0459
▁Ohain	-11.0459
▁felicity	-11.0459
▁hurry	-11.0459
▁Pope	-11.0459
▁inexplicable	-11.0459
▁sank	-11.0459
▁glitter	-11.0459
▁occasionally	-11.046
▁oratory	-11.046
▁flies	-11.046
▁stupidity	-11.0461
▁assembled	-11.0461
▁assailed	-11.0461
▁fatality	-11.0461
▁amazed	-11.0461
▁violet	-11.0461
▁penal	-11.0461
▁assassinated	-11.0461
▁undergone	-11.0461
▁trickled	-11.0462
▁battles	-11.0462
▁Maine	-11.0462
▁relieved	-11.0463
▁discussion	-11.0463
▁electric	-11.0463
▁dispersed	-11.0463
▁extracted	-11.0465
▁veins	-11.0465
▁peaceable	-11.0466
▁withdrew	-11.0466
▁absurd	-11.0467
▁retraced	-11.0467
▁harshly	-11.0468
▁XVII	-11.0468
▁swarming	-11.047
▁blessing	-11.047
▁Marat	-11.047
▁headlong	-11.047
▁persisted	-11.0471
▁gayly	-11.0471
▁inscribed	-11.0471
▁alcove	-11.0473
▁trademark	-11.0473
▁Lieutenant	-11.0473
▁enigmatical	-11.0473
▁bride	-11.0473
▁contemplated	-11.0474
▁awaited	-11.0476
▁collecting	-11.0476
▁amusing	-11.0476
▁wheat	-11.0476
▁thoughtfully	-11.0476
▁resisted	-11.0476
▁saving	-11.0477
▁comprehended	-11.048
Citizens	-11.0481
▁abysses	-11.0484
▁buttoned	-11.0484
▁lodged	-11.0485
▁measured	-11.0486
▁praying	-11.0489
▁camp	-11.0489
▁club	-11.0491
▁incomplete	-11.0492
▁disappearing	-11.0492
▁Royal	-11.0492
▁FIRST	-11.0493
▁HISTORY	-11.0494
▁Above	-11.0494
▁Euphrasie	-11.0494
▁bearded	-11.0494
▁crossroads	-11.0494
▁jet	-11.0495
▁farce	-11.0498
▁crawled	-11.0498
▁product	-11.0498
▁plane	-11.05
▁void	-11.0501
▁abounded	-11.0502
▁train	-11.0506
▁forks	-11.0507
▁wagon	-11.0515
▁coldly	-11.0516
▁warmed	-11.0517
▁Being	-11.0522
▁Tell	-11.0523
▁THIR	-11.0526
▁spiders	-11.0527
▁ban	-11.0531
▁stro	-11.0532
mender	-11.0534
▁rats	-11.0537
▁marching	-11.0547
▁erected	-11.055
▁irony	-11.0551
▁formation	-11.0551
▁phases	-11.0554
▁saints	-11.0554
▁blackness	-11.0564
pot	-11.0564
▁code	-11.0565
▁main	-11.0567
▁faubourgs	-11.0567
▁Last	-11.057
▁sin	-11.0574
▁dies	-11.0574
▁neat	-11.0576
▁locked	-11.0577
▁sentiments	-11.0578
▁precautions	-11.0581
os	-11.0587
▁join	-11.0591
▁elements	-11.0598
▁posting	-11.0612
HE	-11.0615
▁axe	-11.0628
▁Parisians	-11.0629
ship	-11.0632
▁LI	-11.064
▁Inspector	-11.0641
▁Twenty	-11.0642
eur	-11.0642
▁sounded	-11.0644
▁Poor	-11.0646
▁members	-11.0646
▁panes	-11.0652
▁cent	-11.066
▁Five	-11.0668
ardin	-11.0674
▁suffers	-11.0677
LD	-11.0687
▁Sa	-11.0692
k	-11.0714
▁renders	-11.0719
▁parted	-11.0726
▁HE	-11.0737
▁rush	-11.0744
▁shows	-11.075
have	-11.0759
▁banks	-11.0789
▁heaps	-11.0791
INE	-11.0791
▁YOU	-11.0804
off	-11.0821
▁fee	-11.0829
UST	-11.0835
▁dealer	-11.0836
good	-11.0856
▁perish	-11.0862
▁numbers	-11.0872
ched	-11.0873
▁sooth	-11.0874
▁WILL	-11.0885
▁plays	-11.0911
ball	-11.0914
▁services	-11.0937
▁sly	-11.0953
up	-11.0953
▁owned	-11.0969
ns	-11.0992
▁strangers	-11.1022
guard	-11.1026
▁prisons	-11.1032
ory	-11.1042
▁180	-11.1047
God	-11.1055
▁gazes	-11.1068
story	-11.1075
▁memor	-11.1082
▁est	-11.1094
▁renounce	-11.11
colored	-11.1106
▁effects	-11.1112
▁Pa	-11.1121
GAVROCHE	-11.1121
Certainly	-11.1124
boy	-11.1132
▁je	-11.1139
Thanks	-11.1149
▁sigh	-11.1149
taken	-11.1155
▁lapse	-11.1169
▁collect	-11.1199
▁national	-11.1206
ES	-11.1223
▁divers	-11.1233
▁pa	-11.1235
▁burn	-11.1249
▁crawl	-11.125
▁attract	-11.1257
▁examine	-11.1262
▁towns	-11.1263
▁check	-11.1264
▁bludgeon	-11.1272
cochère	-11.1273
▁minister	-11.1274
▁color	-11.1275
▁blackguard	-11.1276
▁quarrel	-11.1278
▁skull	-11.128
▁paragraph	-11.1283
▁instruction	-11.1284
▁enjoyment	-11.1284
▁signal	-11.1287
which	-11.1288
▁meadow	-11.1289
▁Its	-11.129
▁spider	-11.129
▁pupil	-11.1291
!—	-11.1292
▁pitch	-11.1293
▁promenade	-11.1294
▁skeleton	-11.1297
▁swallow	-11.1297
▁hotel	-11.1298
▁troop	-11.1299
▁barrel	-11.1299
▁tale	-11.13
▁precipice	-11.1305
▁ruffian	-11.1307
▁shutter	-11.1311
▁text	-11.1313
low	-11.1328
▁corps	-11.1331
▁layer	-11.1334
▁sage	-11.1336
▁super	-11.1342
▁murder	-11.1344
▁endeavor	-11.1349
▁fille	-11.135
▁writer	-11.135
▁borrow	-11.1351
▁provide	-11.1353
ate	-11.1354
▁construct	-11.1354
▁princes	-11.1355
▁lesson	-11.1357
▁retire	-11.1359
▁announce	-11.136
▁accuse	-11.136
▁irregular	-11.1361
▁ditch	-11.1361
▁valiant	-11.1361
▁imperious	-11.1361
▁vigorous	-11.1362
▁claim	-11.1362
▁belt	-11.1363
▁extinct	-11.1365
▁Convent	-11.1365
▁prodigal	-11.1365
▁rigid	-11.1366
▁decrepit	-11.1366
▁awkward	-11.1366
▁patience	-11.1366
Alleud	-11.1366
Banquier	-11.1366
▁Academy	-11.1366
▁Alexander	-11.1366
▁Dauphin	-11.1366
▁Fameuil	-11.1366
▁Grève	-11.1366
▁January	-11.1366
▁Lobau	-11.1366
▁Tacitus	-11.1366
▁bodice	-11.1366
▁butterflies	-11.1366
▁commissary	-11.1366
▁cotton	-11.1366
▁hallucination	-11.1366
▁hostelry	-11.1366
▁hurricane	-11.1366
▁pincers	-11.1366
▁veteran	-11.1366
Moniteur	-11.1366
▁Musain	-11.1366
▁espied	-11.1366
▁extremities	-11.1366
▁population	-11.1366
▁rebellion	-11.1366
▁physician	-11.1366
▁tiptoe	-11.1366
▁chisel	-11.1366
▁humming	-11.1366
▁studies	-11.1366
▁arrondissement	-11.1366
▁superfluous	-11.1366
▁inheritance	-11.1366
▁Venus	-11.1366
▁imperial	-11.1366
▁prostitution	-11.1366
▁beauties	-11.1366
▁ultra	-11.1366
▁audacious	-11.1366
▁batteries	-11.1366
▁colossus	-11.1366
cheurs	-11.1366
▁qualities	-11.1366
▁meditating	-11.1366
▁infirmary	-11.1367
▁critical	-11.1367
▁resignation	-11.1367
▁prosperity	-11.1367
▁isolation	-11.1367
▁idleness	-11.1367
▁Verga	-11.1367
▁vanity	-11.1367
▁scoundrel	-11.1367
▁communication	-11.1367
▁relating	-11.1367
▁entitled	-11.1367
▁statesman	-11.1367
▁loins	-11.1367
▁stirring	-11.1367
▁shaking	-11.1367
▁relic	-11.1367
▁bitterness	-11.1368
▁eventually	-11.1368
▁equality	-11.1368
▁travelled	-11.1368
▁prolonged	-11.1368
▁seventy	-11.1369
▁descent	-11.1369
▁contemplating	-11.1369
▁harshness	-11.1369
▁terrifying	-11.1369
▁yawned	-11.1369
▁Arab	-11.1369
▁dirty	-11.1369
▁affection	-11.1369
▁recognizing	-11.1369
▁regretted	-11.137
▁summed	-11.137
▁candid	-11.137
▁exasperated	-11.137
▁eyelids	-11.1371
▁requirements	-11.1371
▁promptly	-11.1371
▁habitually	-11.1371
▁cutting	-11.1372
▁honorable	-11.1373
▁posture	-11.1373
▁anarchy	-11.1373
▁clump	-11.1374
▁roused	-11.1374
▁hoping	-11.1375
iddle	-11.1375
▁developed	-11.1375
▁Add	-11.1375
▁floated	-11.1375
▁Ages	-11.1376
▁distribution	-11.1376
▁aroused	-11.1377
▁caressing	-11.1378
▁overturned	-11.1378
▁chosen	-11.1379
▁armies	-11.1379
▁bolted	-11.1379
▁surveying	-11.1379
▁drinkers	-11.1382
▁railing	-11.1382
▁charitable	-11.1382
▁relief	-11.1383
▁Braine	-11.1383
▁Bombarda	-11.1383
▁equally	-11.1384
▁Cambronne	-11.1384
▁Gibelotte	-11.1384
▁Perpetual	-11.1384
▁indulge	-11.1384
▁shoe	-11.1384
▁screen	-11.1385
▁courageous	-11.1387
▁curve	-11.1387
▁purely	-11.1388
An	-11.1388
▁sainted	-11.139
▁paint	-11.139
▁calmly	-11.139
▁distributed	-11.1392
▁fathoms	-11.1392
▁sadly	-11.1395
▁solution	-11.1396
▁higher	-11.1396
▁fixedly	-11.1398
▁beaming	-11.1398
▁glowing	-11.1398
▁deny	-11.1399
▁scruples	-11.14
▁folding	-11.14
▁MADE	-11.14
▁dispute	-11.14
▁legions	-11.1403
▁Honor	-11.1404
▁Welcome	-11.1406
▁Pierre	-11.1406
▁wrinkles	-11.1408
▁assume	-11.1409
▁temples	-11.1414
▁miracles	-11.1414
▁wishes	-11.1417
▁whispering	-11.1421
▁swing	-11.1421
▁Th	-11.1423
▁mirth	-11.1424
ra	-11.1425
▁serving	-11.1426
▁signify	-11.1428
▁inches	-11.1431
▁hills	-11.1436
rooms	-11.1436
▁vices	-11.1436
▁bedroom	-11.1437
▁colors	-11.1441
▁showing	-11.1441
▁dome	-11.1442
▁Val	-11.1454
▁pages	-11.1454
▁illusions	-11.1465
▁deliberate	-11.1474
▁Whither	-11.1476
▁adding	-11.1479
▁wont	-11.1481
▁possessing	-11.1487
▁plates	-11.1491
▁drain	-11.1491
_—	-11.1493
▁bursting	-11.1493
▁Ten	-11.1497
▁Catherine	-11.1499
▁whoever	-11.1502
▁Which	-11.1503
▁plus	-11.1503
▁incidents	-11.1517
▁raining	-11.1518
▁paths	-11.153
▁sw	-11.1539
▁COSETTE	-11.1545
▁strolls	-11.1545
AT	-11.1545
▁Impossible	-11.1546
▁caverns	-11.1553
▁armchairs	-11.1554
▁virgins	-11.1557
▁casting	-11.1567
▁fits	-11.1572
▁Marquise	-11.1575
▁proceeds	-11.1593
▁catastrophes	-11.1597
bills	-11.1603
des	-11.1608
▁ba	-11.161
father	-11.1616
▁clash	-11.1619
▁columns	-11.1622
▁spend	-11.1628
▁heedless	-11.163
8,	-11.1664
oul	-11.1677
trange	-11.1683
eight	-11.1684
▁brains	-11.1689
teaux	-11.1693
▁vaults	-11.1711
▁pr	-11.1712
▁END	-11.1714
▁glimpses	-11.1716
▁pleases	-11.1724
▁sunk	-11.1743
▁bridges	-11.1746
▁courts	-11.1755
▁gratings	-11.1758
▁Mars	-11.1771
ette	-11.1771
LY	-11.1786
TO	-11.1793
ess	-11.1795
▁instincts	-11.1798
▁conceive	-11.181
▁con	-11.1819
inally	-11.1826
rusty	-11.1829
AY	-11.1835
▁More	-11.1843
▁cab	-11.1844
ave	-11.1851
▁robe	-11.1875
here	-11.188
▁gets	-11.1886
▁Six	-11.189
ix	-11.1891
ries	-11.1896
▁bursts	-11.1912
▁lo	-11.1926
▁FOUR	-11.1957
▁attorney	-11.1965
ned	-11.1977
▁pursu	-11.2
00	-11.2001
▁Ja	-11.2005
▁laughs	-11.2033
▁actual	-11.2044
slave	-11.2054
▁Day	-11.2054
▁signs	-11.2077
His	-11.2081
▁Du	-11.2092
From	-11.2096
Say	-11.2114
Very	-11.2116
▁invalid	-11.2118
▁strip	-11.2119
ized	-11.2121
Would	-11.2121
Five	-11.2124
Dieu	-11.2125
Alas	-11.2125
Dame	-11.2125
TWO	-11.2126
▁boil	-11.2133
▁limp	-11.2138
See	-11.2141
Les	-11.2168
▁persist	-11.2174
iron	-11.2193
rchbishop	-11.2203
▁lean	-11.2211
▁winds	-11.2212
Six	-11.2222
▁par	-11.2229
▁8	-11.2229
LAST	-11.2233
▁posts	-11.2243
ze	-11.2247
▁yield	-11.225
ations	-11.2257
▁creat	-11.2259
▁monument	-11.2267
▁poison	-11.2268
▁news	-11.227
▁arrange	-11.2271
▁café	-11.2272
▁cloak	-11.2272
▁conquest	-11.2272
▁dance	-11.2272
▁shake	-11.2273
▁symbol	-11.2274
ide	-11.2275
▁sink	-11.2279
▁manuscript	-11.228
▁defect	-11.228
▁punishment	-11.228
▁dray	-11.228
▁practice	-11.228
▁recommend	-11.2281
▁epic	-11.2283
▁method	-11.2283
▁experience	-11.2283
▁proprietor	-11.2284
▁transport	-11.2286
▁dungeon	-11.2287
▁gossip	-11.2287
▁function	-11.2287
▁imagination	-11.2287
▁weapon	-11.2288
▁ascend	-11.2288
▁frontier	-11.2288
▁resource	-11.2289
▁talent	-11.229
▁garment	-11.2291
▁relative	-11.2292
▁stiff	-11.2295
▁nook	-11.2302
▁eBook	-11.2305
▁million	-11.2308
▁article	-11.2317
▁peal	-11.2322
▁overwhelm	-11.2331
▁miss	-11.2337
▁bowl	-11.2338
▁Abou	-11.234
▁cord	-11.2341
▁smiles	-11.2342
▁hunt	-11.2342
▁worm	-11.2342
▁diminish	-11.2344
ung	-11.2345
▁lip	-11.2346
▁employ	-11.2348
▁retain	-11.2349
▁recompense	-11.2351
▁Madam	-11.2352
▁fail	-11.2352
▁despise	-11.2352
▁decide	-11.2353
▁delay	-11.2355
▁vice	-11.2356
▁worst	-11.2357
▁corn	-11.236
▁parish	-11.2361
▁discreet	-11.2362
▁pun	-11.2362
▁govern	-11.2363
▁adjoin	-11.2363
▁quiet	-11.2364
▁comfort	-11.2365
▁majestic	-11.2366
▁Church	-11.2366
ORIGIN	-11.2366
▁Arsenal	-11.2366
▁Diogenes	-11.2366
▁Frontispiece	-11.2366
▁Gribier	-11.2366
▁John	-11.2366
▁Labarre	-11.2366
▁License	-11.2366
▁SHADOW	-11.2366
▁coquetry	-11.2366
▁decorated	-11.2366
▁democracy	-11.2366
▁galleries	-11.2366
▁garrison	-11.2366
▁infallible	-11.2366
▁knowledge	-11.2366
▁monastery	-11.2366
▁parallel	-11.2366
▁remnant	-11.2366
▁servitude	-11.2366
▁ventriloquist	-11.2366
▁wayfarer	-11.2366
▁Cygne	-11.2366
▁Molière	-11.2366
▁bosom	-11.2366
▁vivacity	-11.2366
▁CONVENT	-11.2366
▁bewilderment	-11.2366
▁cashier	-11.2366
▁comparison	-11.2366
▁respiration	-11.2366
▁Pontoise	-11.2366
▁farewell	-11.2366
FRANC	-11.2366
▁AFTER	-11.2366
▁Homer	-11.2366
▁epaulets	-11.2366
Hullo	-11.2366
▁commotion	-11.2366
▁astray	-11.2366
▁glacial	-11.2366
▁heavily	-11.2366
▁merrily	-11.2366
Cloud	-11.2366
▁elegance	-11.2366
▁liquid	-11.2366
▁horizontal	-11.2366
▁recognizable	-11.2366
▁Henry	-11.2366
▁belief	-11.2366
▁gibbet	-11.2366
▁muddy	-11.2366
▁treacherous	-11.2367
▁South	-11.2367
▁lungs	-11.2367
▁modern	-11.2367
▁Fabre	-11.2367
▁dandy	-11.2367
▁descried	-11.2367
MBER	-11.2367
▁Abbey	-11.2367
▁adoration	-11.2367
▁miseries	-11.2367
▁serge	-11.2367
▁saddle	-11.2367
▁reddish	-11.2367
▁choir	-11.2367
▁delicious	-11.2367
▁rallied	-11.2367
▁barber	-11.2367
▁superposed	-11.2367
▁enraged	-11.2367
▁Duke	-11.2367
▁intermingled	-11.2367
▁poetry	-11.2367
▁moonlight	-11.2367
▁simultaneously	-11.2367
▁errand	-11.2367
▁1833	-11.2368
▁jaw	-11.2368
▁briskly	-11.2368
▁employment	-11.2368
▁agreeable	-11.2368
▁transformation	-11.2368
▁continually	-11.2368
▁indecision	-11.2369
Flora	-11.2369
▁escaping	-11.2369
▁dejected	-11.2369
▁increasing	-11.2369
▁sob	-11.2369
▁philosophical	-11.2369
▁panting	-11.2369
▁type	-11.2369
▁accentuated	-11.2369
▁destitution	-11.2369
▁varied	-11.2369
▁Henceforth	-11.237
▁attributed	-11.237
▁physical	-11.237
▁wicket	-11.237
▁perceptible	-11.237
▁unconsciously	-11.237
▁endowed	-11.237
▁sustained	-11.2371
▁uplifted	-11.2371
▁convents	-11.2371
▁external	-11.2371
▁stifled	-11.2371
▁brandy	-11.2371
Parbleu	-11.2371
▁apply	-11.2372
▁icy	-11.2372
▁compared	-11.2372
▁confided	-11.2372
trusted	-11.2372
▁youthful	-11.2373
▁wedded	-11.2373
▁assurance	-11.2374
▁entertained	-11.2374
▁thirsty	-11.2374
▁interrogated	-11.2374
▁blackened	-11.2375
▁blossoming	-11.2375
▁Baronne	-11.2375
▁contradiction	-11.2375
▁tax	-11.2375
▁ashamed	-11.2376
HAPPY	-11.2376
▁assured	-11.2376
▁kneeling	-11.2376
▁Other	-11.2377
▁jealousy	-11.2377
▁enlightened	-11.2377
▁expressly	-11.2378
▁preceded	-11.238
▁sickly	-11.238
▁hesitating	-11.2381
▁suppressed	-11.2381
▁curt	-11.2381
Orion	-11.2382
▁diminished	-11.2382
▁assure	-11.2383
org	-11.2383
▁borrowed	-11.2384
▁enclosed	-11.2384
▁brioche	-11.2384
▁shroud	-11.2384
▁security	-11.2385
▁London	-11.2385
▁undertake	-11.2385
▁Marshal	-11.2385
▁Listolier	-11.2385
▁Nature	-11.2385
▁deceived	-11.2386
▁European	-11.2387
▁knotted	-11.2388
▁idolize	-11.2388
▁nearest	-11.2389
UM	-11.2391
▁royalist	-11.2391
▁manure	-11.2393
▁mob	-11.2394
▁distinction	-11.2394
▁surely	-11.2396
▁scaled	-11.2396
▁mould	-11.2397
▁vanishing	-11.2399
located	-11.2399
▁tries	-11.2399
▁wasted	-11.2402
▁relations	-11.2402
▁pour	-11.2403
▁satin	-11.2403
▁reaches	-11.2404
▁withdrawing	-11.2405
▁fleeing	-11.2405
▁associated	-11.2409
▁PARIS	-11.241
▁postilion	-11.241
▁Half	-11.241
▁wives	-11.2415
Children	-11.2416
▁cheerful	-11.2417
▁piled	-11.2418
▁childish	-11.2419
▁features	-11.2419
▁attempted	-11.242
▁honesty	-11.242
ists	-11.2423
▁veiled	-11.2424
▁reared	-11.2424
▁nettles	-11.2427
▁supporting	-11.2428
▁shown	-11.2428
▁gods	-11.2428
▁nothingness	-11.2429
▁objections	-11.243
▁inaccessible	-11.2432
▁regions	-11.2435
▁published	-11.2437
▁pull	-11.2438
▁rendering	-11.2438
▁buttons	-11.2439
▁arched	-11.244
▁nooks	-11.244
▁outlines	-11.2441
▁disdainful	-11.2445
▁resources	-11.2445
▁vaulted	-11.2446
▁lord	-11.2455
▁Matelote	-11.2462
▁washed	-11.2463
Enter	-11.2464
▁arises	-11.2464
▁HO	-11.2467
▁sincere	-11.2468
▁spell	-11.2474
▁separates	-11.2474
▁respected	-11.2476
▁skill	-11.2476
▁internal	-11.2477
▁sixth	-11.2477
▁broom	-11.2482
EUR	-11.2489
▁lowering	-11.2489
▁attacking	-11.2498
▁looks	-11.2507
▁ours	-11.251
▁searching	-11.2512
▁screw	-11.2513
▁romances	-11.2525
▁reasoning	-11.2526
▁ribbons	-11.2533
▁faithful	-11.2536
▁wander	-11.2539
▁citizens	-11.2542
▁bou	-11.2542
▁Paul	-11.2542
▁embarrass	-11.2545
ROM	-11.2553
▁lightly	-11.2555
▁disappears	-11.2556
▁pursue	-11.2556
▁li	-11.2557
▁seeks	-11.2561
with	-11.2562
venue	-11.2569
▁rolling	-11.257
▁cards	-11.2572
▁uniforms	-11.2574
▁ladders	-11.2574
une	-11.258
▁insults	-11.2588
▁War	-11.2594
▁flock	-11.2601
▁mists	-11.2604
▁masks	-11.2606
▁flute	-11.2607
Le	-11.2613
▁Would	-11.2621
▁lest	-11.2623
▁attempts	-11.2626
▁trot	-11.2631
▁visions	-11.2636
▁acknowledge	-11.2637
▁stead	-11.2654
▁draws	-11.2665
▁pinch	-11.2676
tended	-11.2678
▁offices	-11.2678
DE	-11.2699
▁heel	-11.2706
▁j	-11.2709
▁precede	-11.2715
▁ahead	-11.2715
▁net	-11.2719
▁bishops	-11.2728
▁cats	-11.2749
▁busi	-11.2769
leaped	-11.2793
▁haunt	-11.2808
▁harangue	-11.281
▁rob	-11.2814
.”—	-11.2816
▁remarks	-11.2817
▁barricaded	-11.2846
▁founded	-11.2861
▁behave	-11.2862
▁Lo	-11.2867
▁runs	-11.2873
▁openings	-11.2885
cal	-11.2891
▁angelic	-11.2899
Down	-11.2926
▁ro	-11.2946
▁HAV	-11.2948
ipped	-11.2962
▁roam	-11.2987
▁chant	-11.2988
▁powers	-11.2991
▁mo	-11.3001
.—	-11.3003
▁mission	-11.304
ck	-11.3047
▁fore	-11.3048
▁swell	-11.305
Rever	-11.305
night	-11.3052
RY	-11.3054
▁practise	-11.3058
chamber	-11.3091
▁bright	-11.3115
▁backed	-11.3116
dresser	-11.3128
ere	-11.3128
▁Si	-11.3134
load	-11.3143
▁fo	-11.3147
dog	-11.3159
human	-11.3162
ified	-11.3165
z	-11.3166
LI	-11.3179
?_	-11.3191
▁expressi	-11.3195
ke	-11.3204
Minette	-11.3207
ul	-11.3214
hazard	-11.322
▁wh	-11.3223
Stop	-11.3226
Three	-11.3231
Twenty	-11.3233
Inspector	-11.3233
Poor	-11.3234
▁dogma	-11.3235
ility	-11.3237
looking	-11.3238
▁ho	-11.3239
▁clap	-11.3272
▁leaf	-11.329
▁lot	-11.3323
V	-11.3324
▁exclaim	-11.333
▁recurre	-11.3338
ternal	-11.3341
▁OR	-11.3352
▁hurl	-11.3353
▁shiver	-11.3354
▁reveal	-11.336
▁purchase	-11.3362
▁infant	-11.337
▁sons	-11.3371
▁shriek	-11.3379
▁excuse	-11.3379
▁summon	-11.338
▁August	-11.3382
▁perspective	-11.3382
▁Grace	-11.3384
▁mount	-11.3387
lles	-11.3387
▁bolt	-11.3387
▁moderate	-11.3388
▁domestic	-11.3391
▁recollection	-11.3391
▁department	-11.3395
▁teach	-11.3395
▁preoccupation	-11.3396
▁commission	-11.3398
▁current	-11.3398
▁outline	-11.3399
▁fleur	-11.34
▁kick	-11.34
▁region	-11.3401
▁masterpiece	-11.3402
▁candlestick	-11.3403
▁Beside	-11.3404
▁thence	-11.3409
▁clerk	-11.3411
▁Marie	-11.3417
▁tin	-11.3424
▁fob	-11.3424
▁augment	-11.343
▁Un	-11.3431
▁rattl	-11.3432
ack	-11.3433
▁India	-11.3434
▁crush	-11.3438
▁perform	-11.3444
▁brutal	-11.3446
▁drum	-11.3447
▁accompany	-11.3455
▁plate	-11.3456
▁interrupt	-11.3461
▁scorn	-11.3461
IES	-11.3462
▁retort	-11.3462
▁resolve	-11.3464
▁maintain	-11.3465
▁pierce	-11.3466
▁clasp	-11.3467
▁jump	-11.3469
▁weakness	-11.3473
▁obstinate	-11.3473
▁vicious	-11.3476
▁zeal	-11.3476
▁pencil	-11.3477
▁romantic	-11.3477
▁von	-11.3477
▁simplicity	-11.3477
Geneviève	-11.3477
▁Genrot	-11.3477
▁Mathieu	-11.3477
▁Ménilmontant	-11.3477
▁October	-11.3477
▁September	-11.3477
▁acquaintance	-11.3477
▁apparatus	-11.3477
▁banlieue	-11.3477
▁campaign	-11.3477
▁cottage	-11.3477
▁dejection	-11.3477
▁eloquence	-11.3477
▁fraternity	-11.3477
▁identical	-11.3477
▁immobility	-11.3477
▁innumerable	-11.3477
▁leisure	-11.3477
▁literary	-11.3477
▁literature	-11.3477
▁millionnaire	-11.3477
▁nostrils	-11.3477
▁requisite	-11.3477
▁sagacious	-11.3477
▁significance	-11.3477
▁societies	-11.3477
▁stupefaction	-11.3477
▁terrestrial	-11.3477
▁trigger	-11.3477
▁unfathomable	-11.3477
▁uninhabited	-11.3477
▁Turk	-11.3477
▁emptied	-11.3477
▁parliament	-11.3477
▁banquet	-11.3477
▁chimerical	-11.3477
▁harmony	-11.3477
builders	-11.3477
▁maladies	-11.3477
▁noisily	-11.3477
▁plaintive	-11.3477
▁transferred	-11.3477
▁Lagny	-11.3477
▁morsel	-11.3477
▁tricolored	-11.3477
▁preoccupied	-11.3477
▁advent	-11.3477
▁garter	-11.3478
▁detachment	-11.3478
▁follies	-11.3478
▁salary	-11.3478
▁cockade	-11.3478
▁native	-11.3478
▁strategy	-11.3478
▁agility	-11.3478
▁central	-11.3478
▁tempted	-11.3478
▁denial	-11.3478
▁transfiguration	-11.3478
▁density	-11.3478
▁infinity	-11.3478
▁frail	-11.3478
▁score	-11.3478
▁outstretched	-11.3478
▁pulse	-11.3478
▁damask	-11.3478
▁opposition	-11.3478
▁renown	-11.3478
▁dormer	-11.3478
▁providence	-11.3478
▁favorite	-11.3478
▁delightful	-11.3478
▁tolerable	-11.3478
▁value	-11.3478
▁seminary	-11.3478
▁confinement	-11.3478
▁eagerly	-11.3479
▁signified	-11.3479
▁acceptance	-11.3479
▁diversion	-11.3479
▁outburst	-11.3479
▁downcast	-11.3479
▁protection	-11.3479
▁virtuous	-11.3479
▁Black	-11.3479
▁travelling	-11.3479
▁entry	-11.3479
▁Below	-11.3479
▁solemnity	-11.3479
▁deliberation	-11.3479
▁peculiarities	-11.3479
▁handwriting	-11.3479
▁dissipated	-11.3479
▁urged	-11.348
▁intersected	-11.348
▁niche	-11.348
▁permeated	-11.348
▁readily	-11.348
▁unclean	-11.348
▁derived	-11.348
▁observing	-11.3481
▁cowardly	-11.3481
▁diffuse	-11.3481
▁improvised	-11.3481
▁arouse	-11.3481
▁startling	-11.3481
▁suggested	-11.3481
▁’8	-11.3482
▁injured	-11.3482
▁pacing	-11.3483
▁impatient	-11.3483
▁hitherto	-11.3483
telet	-11.3484
▁calmness	-11.3484
▁cursed	-11.3484
▁novel	-11.3484
▁sixteenth	-11.3485
▁stretches	-11.3485
▁gloves	-11.3485
▁crumbled	-11.3485
▁status	-11.3485
▁correctly	-11.3485
▁awake	-11.3486
▁Thereupon	-11.3486
▁sober	-11.3486
▁sealed	-11.3486
▁peep	-11.3486
▁lingered	-11.3486
▁despatched	-11.3487
▁timidly	-11.3487
▁determined	-11.3488
▁adjusted	-11.3488
utenberg	-11.3488
▁encouraged	-11.3488
▁cheer	-11.3488
▁dismissed	-11.3489
▁awaken	-11.3489
▁confounded	-11.3489
▁consulted	-11.3489
▁disconcerted	-11.349
Neuf	-11.3491
▁overhead	-11.3491
▁closing	-11.3491
▁boughs	-11.3492
▁eve	-11.3492
▁ardent	-11.3493
▁mistresses	-11.3493
▁unconscious	-11.3494
▁furiously	-11.3494
▁swelling	-11.3494
▁gross	-11.3495
▁pursuit	-11.3497
Social	-11.3497
▁Guill	-11.3497
▁confessed	-11.3497
▁studded	-11.3498
▁Majesty	-11.3498
▁mountebank	-11.3498
▁Mouffetard	-11.3498
▁masonry	-11.3498
▁disguised	-11.3499
▁regulated	-11.3499
▁battery	-11.3499
▁sinking	-11.35
▁strongly	-11.35
▁wig	-11.3501
▁policeman	-11.3501
▁flue	-11.3502
▁sighed	-11.3502
▁displaying	-11.3502
▁awakened	-11.3502
▁gracious	-11.3503
▁stammer	-11.3503
▁bushes	-11.3503
▁deeper	-11.3506
▁Adam	-11.3506
▁stationed	-11.3509
▁drowned	-11.351
▁WAR	-11.3511
▁sport	-11.3511
▁reigning	-11.3511
▁sabre	-11.3511
▁scrape	-11.3513
▁hap	-11.3514
▁Aix	-11.3515
▁designate	-11.3515
▁quivered	-11.3515
▁driver	-11.3515
▁seriously	-11.3516
▁arrangements	-11.3519
▁roots	-11.352
pruner	-11.3521
▁singularly	-11.3521
▁intending	-11.3524
▁mail	-11.3525
▁cave	-11.3525
▁Mame	-11.3526
▁directing	-11.3526
▁Mamselle	-11.3526
▁Barthélemy	-11.3526
▁comply	-11.3527
▁fray	-11.3527
▁grenadiers	-11.3528
▁projectiles	-11.3528
▁stalls	-11.3529
▁lashes	-11.353
▁counting	-11.353
▁insisted	-11.3531
▁backwards	-11.3532
▁sheep	-11.3534
▁vile	-11.3536
▁compartments	-11.3537
▁landing	-11.3538
▁blocks	-11.3539
▁bath	-11.3541
▁tied	-11.3541
ww	-11.3541
▁presently	-11.3545
▁enjoin	-11.3546
took	-11.355
▁[_	-11.3554
▁bolts	-11.3555
▁ranged	-11.3555
▁conjecture	-11.3556
▁12	-11.3557
▁flashed	-11.3557
▁cords	-11.3558
▁wring	-11.3558
mmed	-11.3564
▁articles	-11.3564
▁belonging	-11.3567
▁ignore	-11.3568
▁grouped	-11.3571
▁term	-11.3571
▁meadows	-11.3574
▁sheltered	-11.3577
▁perpetual	-11.3578
▁heaped	-11.3579
▁lessons	-11.358
▁appearing	-11.358
▁warden	-11.3583
▁melt	-11.3587
▁Whence	-11.3587
▁boat	-11.3589
▁bone	-11.3594
▁debts	-11.36
▁vi	-11.3604
▁dawning	-11.3605
▁giants	-11.3618
▁prostrate	-11.362
▁manufacture	-11.3621
▁reigns	-11.3622
ile	-11.3625
▁files	-11.3629
▁thinkers	-11.363
▁tells	-11.3634
▁divisions	-11.3638
▁creates	-11.364
▁READ	-11.3645
▁lovely	-11.3647
▁limits	-11.3651
▁canal	-11.3654
▁Think	-11.3661
▁riots	-11.3667
▁attire	-11.3669
▁animals	-11.3672
▁sparks	-11.3677
▁v	-11.3678
▁male	-11.3679
▁measures	-11.3683
▁dew	-11.3684
▁Jondrettes	-11.3689
▁trips	-11.3694
▁rebound	-11.3697
▁Car	-11.37
▁plans	-11.3704
strained	-11.3705
CE	-11.3711
▁seizes	-11.3717
▁si	-11.3717
ru	-11.3717
▁suppress	-11.3719
▁contents	-11.372
▁phrases	-11.3721
▁cells	-11.3721
▁assassins	-11.3726
▁hides	-11.373
▁rolls	-11.3741
▁descends	-11.3747
▁gulfs	-11.3763
▁piles	-11.3767
lys	-11.3767
▁emerges	-11.3779
▁slopes	-11.3784
▁flames	-11.3784
▁inter	-11.3784
▁conversations	-11.3786
▁arrives	-11.3788
▁traps	-11.3805
▁Ho	-11.3806
▁lawyers	-11.3813
▁port	-11.3814
▁monsters	-11.3849
▁bearings	-11.3849
▁moss	-11.3853
▁fronts	-11.3861
rugged	-11.3878
ding	-11.3881
▁waters	-11.3885
▁ventur	-11.3901
▁Thought	-11.3909
▁Far	-11.394
series	-11.3954
Air	-11.3956
▁older	-11.396
ATH	-11.3961
▁sufferings	-11.398
Ge	-11.3987
▁attain	-11.3992
▁wherein	-11.4004
▁advances	-11.4007
▁recur	-11.4011
▁senses	-11.4025
ger	-11.4027
▁virtues	-11.4035
▁attitudes	-11.4036
▁rogue	-11.4037
IL	-11.4048
▁carts	-11.4051
ARY	-11.4051
▁omit	-11.4052
▁talks	-11.4074
▁breasts	-11.4089
▁scoff	-11.4098
▁Mar	-11.411
▁revers	-11.4115
liness	-11.4121
PAR	-11.4125
▁cock	-11.413
united	-11.4135
▁inhabit	-11.4144
door	-11.4153
ked	-11.4158
▁hopes	-11.4161
yards	-11.4172
▁expose	-11.4184
▁chat	-11.4186
AVE	-11.4188
▁lavish	-11.4191
▁merit	-11.4192
▁forests	-11.4209
intended	-11.4218
Rue	-11.4221
▁subjects	-11.4223
▁van	-11.4238
▁rat	-11.4257
ga	-11.4259
Javert	-11.4278
▁rummage	-11.43
▁faced	-11.4307
▁owl	-11.4316
ating	-11.4318
girl	-11.4322
window	-11.4324
old	-11.4328
▁chances	-11.4332
ez	-11.4332
▁PER	-11.4347
did	-11.4352
▁K	-11.4354
▁invent	-11.4356
▁bees	-11.4364
▁20	-11.4365
ée	-11.4369
▁bivouac	-11.4378
▁steal	-11.4382
▁win	-11.4398
EST	-11.4405
ITS	-11.4407
li	-11.4423
Mother	-11.4443
▁Blanc	-11.4447
▁UN	-11.446
Put	-11.446
Two	-11.4471
▁nous	-11.4471
WHICH	-11.4472
Truanderie	-11.4476
Impossible	-11.4482
▁escapes	-11.4482
COSETTE	-11.4483
dealer	-11.4488
SOME	-11.449
boxes	-11.4491
ty	-11.4494
▁doubts	-11.4502
ue	-11.4506
Mars	-11.4519
▁Hard	-11.4519
▁su	-11.4524
LIGHT	-11.4529
▁faut	-11.4535
tes	-11.4537
▁reproduce	-11.4541
▁supp	-11.4546
RES	-11.4551
▁complain	-11.4558
▁casts	-11.4565
▁ti	-11.4577
mon	-11.4578
PIC	-11.4589
Ben	-11.4592
▁meditate	-11.4605
▁swarm	-11.4606
▁coats	-11.4608
▁plunge	-11.4608
▁entreat	-11.4611
▁fro	-11.4611
▁whirl	-11.4626
▁dash	-11.4626
▁occupation	-11.4629
▁escarpment	-11.4632
▁nuptial	-11.4632
▁professor	-11.4633
xcuse	-11.4633
▁schoolmaster	-11.4633
▁massacre	-11.4633
▁carpet	-11.4633
▁allusion	-11.4634
▁perfection	-11.4636
▁await	-11.4637
▁exempt	-11.4641
▁downward	-11.4641
na	-11.4642
▁billiard	-11.4644
▁grisette	-11.4644
▁sermon	-11.4645
▁vagabond	-11.4646
▁detain	-11.4646
▁damage	-11.4647
▁torment	-11.4647
▁pike	-11.4648
▁brick	-11.4648
▁fugitive	-11.4649
▁artist	-11.4649
▁bouquet	-11.4649
▁souvenir	-11.4651
▁decree	-11.4651
▁Heaven	-11.4651
▁nettle	-11.4651
▁inhabitant	-11.4652
▁painter	-11.4653
▁artisan	-11.4656
▁bandit	-11.4657
▁robber	-11.4657
▁complaint	-11.4658
▁brand	-11.4663
▁Mor	-11.4663
▁needle	-11.467
▁painting	-11.467
▁stock	-11.4671
▁chatter	-11.4671
▁sleeve	-11.4673
▁planet	-11.4678
▁sounds	-11.4678
▁objection	-11.4679
▁vine	-11.4683
▁affect	-11.4684
▁conquer	-11.469
brac	-11.4693
▁survey	-11.4695
▁glad	-11.4696
▁Corinth	-11.4697
▁Cha	-11.4702
▁correspond	-11.4708
ac	-11.4708
▁transform	-11.4708
▁install	-11.4713
▁gather	-11.4718
▁perpendicular	-11.4722
▁distracted	-11.4724
▁laborer	-11.4724
▁couplet	-11.4726
▁excavat	-11.4726
▁foreign	-11.4727
▁forgetful	-11.4727
▁Prefect	-11.4727
▁drugs	-11.4727
▁tragedy	-11.4727
▁BISHOP	-11.4727
▁Cougourde	-11.4727
▁David	-11.4727
▁December	-11.4727
▁Diderot	-11.4727
▁Imperial	-11.4727
▁Misérables	-11.4727
▁Municipal	-11.4727
▁PIECE	-11.4727
▁Panchaud	-11.4727
▁Pantheon	-11.4727
▁Papelotte	-11.4727
▁Plancenoit	-11.4727
▁ambulance	-11.4727
▁cassock	-11.4727
▁chariot	-11.4727
▁constellations	-11.4727
▁contemporary	-11.4727
▁coquettish	-11.4727
▁deformity	-11.4727
▁delirium	-11.4727
▁dilemma	-11.4727
▁diminution	-11.4727
▁eloquent	-11.4727
▁equilibrium	-11.4727
▁essential	-11.4727
▁instituted	-11.4727
▁irreproachable	-11.4727
▁plenitude	-11.4727
▁prodigy	-11.4727
▁refusal	-11.4727
▁repertory	-11.4727
▁responsible	-11.4727
▁serpent	-11.4727
▁stifling	-11.4727
▁sunshine	-11.4727
▁zenith	-11.4727
▁butterfly	-11.4727
▁carnage	-11.4727
▁earlier	-11.4727
▁grateful	-11.4727
▁permanent	-11.4727
Sulpice	-11.4727
▁Chateaubriand	-11.4727
▁bronze	-11.4727
▁judicial	-11.4727
▁meagre	-11.4727
▁odious	-11.4727
▁volcano	-11.4727
▁helmet	-11.4727
▁importance	-11.4727
▁indigence	-11.4727
▁victorious	-11.4727
▁intimate	-11.4727
▁ugliness	-11.4727
*******	-11.4727
▁chastity	-11.4727
▁insignificant	-11.4727
▁MAKE	-11.4727
▁evidence	-11.4727
▁fanaticism	-11.4727
▁capacity	-11.4727
▁conferred	-11.4727
▁dagger	-11.4727
▁geometrical	-11.4727
▁steadily	-11.4727
▁volunteer	-11.4727
▁magnificence	-11.4727
▁vermin	-11.4727
▁stuck	-11.4728
▁sugar	-11.4728
Pardieu	-11.4728
▁refund	-11.4728
▁carved	-11.4728
▁FIVE	-11.4728
▁despotism	-11.4728
▁development	-11.4728
▁incorruptible	-11.4728
▁fortnight	-11.4728
▁sonorous	-11.4728
▁sobbing	-11.4728
▁enlightenment	-11.4728
▁feebly	-11.4728
▁rotten	-11.4728
▁guise	-11.4728
▁dismal	-11.4728
▁downstairs	-11.4728
▁Section	-11.4728
▁forefinger	-11.4728
▁shovelful	-11.4728
▁corruption	-11.4728
▁democratic	-11.4728
▁scarlet	-11.4728
▁Justice	-11.4728
▁candor	-11.4728
▁energy	-11.4728
▁musketry	-11.4728
▁ravishing	-11.4728
▁Orient	-11.4728
▁tocsin	-11.4728
▁researches	-11.4729
▁compromised	-11.4729
▁carpenter	-11.4729
▁Père	-11.4729
▁unmasked	-11.4729
▁restricted	-11.4729
▁readiness	-11.4729
▁recaptured	-11.4729
▁prize	-11.4729
▁culminating	-11.4729
▁cheap	-11.4729
▁indigo	-11.4729
▁Eden	-11.4729
▁Poland	-11.4729
▁locality	-11.4729
▁deliverance	-11.4729
▁preparing	-11.4729
▁Guardsmen	-11.4729
▁multiplied	-11.4729
▁Nero	-11.4729
▁beseech	-11.473
▁orthography	-11.473
▁release	-11.473
▁turf	-11.473
▁displeased	-11.473
▁pallid	-11.4731
▁launched	-11.4731
▁superficial	-11.4731
▁conversing	-11.4731
▁bric	-11.4731
seller	-11.4731
▁disease	-11.4731
▁translation	-11.4731
▁procure	-11.4731
▁gladly	-11.4731
▁defeat	-11.4731
▁invited	-11.4732
▁firmness	-11.4732
▁involuntar	-11.4732
▁Christian	-11.4732
▁expired	-11.4733
▁nobility	-11.4733
▁deformed	-11.4733
▁napoleons	-11.4733
Haut	-11.4733
▁fasten	-11.4733
▁triple	-11.4733
▁clearness	-11.4734
▁secretary	-11.4734
▁dipped	-11.4734
▁abode	-11.4734
▁convenient	-11.4734
▁Char	-11.4734
▁tuft	-11.4734
MENT	-11.4735
▁slain	-11.4735
▁spied	-11.4735
▁Foy	-11.4735
▁reckoned	-11.4735
▁conversed	-11.4735
▁taxes	-11.4736
▁sewed	-11.4737
UESTION	-11.4737
▁doubtless	-11.4737
▁glided	-11.4737
▁repressed	-11.4738
▁unfolding	-11.4738
▁wandering	-11.4739
▁distributing	-11.4739
▁tottering	-11.4739
▁vanishes	-11.474
▁gable	-11.474
▁softened	-11.474
Pas	-11.4741
▁exercised	-11.4741
▁bunch	-11.4741
▁fitting	-11.4741
▁judging	-11.4742
▁sex	-11.4742
▁laden	-11.4742
▁loudly	-11.4743
▁filter	-11.4743
▁Asia	-11.4744
▁deprived	-11.4744
▁transformed	-11.4744
▁regain	-11.4744
▁blocked	-11.4744
▁fluttering	-11.4744
▁discovery	-11.4744
▁smallest	-11.4745
▁spoiled	-11.4745
NU	-11.4745
▁chattering	-11.4745
▁shrieked	-11.4746
▁nude	-11.4746
▁revealed	-11.4746
▁logical	-11.4746
▁warmth	-11.4748
▁tenderly	-11.4749
▁letting	-11.4749
▁geniuses	-11.4749
▁Lane	-11.4749
▁recollect	-11.475
▁license	-11.475
▁Cartouche	-11.475
▁administration	-11.475
▁included	-11.4751
▁blamed	-11.4751
▁adorned	-11.4751
▁ascending	-11.4752
▁stronger	-11.4752
▁timidity	-11.4752
▁afforded	-11.4752
▁severely	-11.4753
▁organized	-11.4754
aster	-11.4754
▁calculations	-11.4754
▁reference	-11.4755
▁overflowed	-11.4756
▁infinitely	-11.4757
▁barefooted	-11.4757
▁passive	-11.4759
▁unity	-11.4759
▁awakening	-11.4759
▁potion	-11.4759
▁bury	-11.4759
▁duel	-11.476
▁deprive	-11.476
▁execute	-11.4762
▁pearls	-11.4763
▁sweetly	-11.4764
▁novices	-11.4765
▁fumbling	-11.4767
▁wipe	-11.4768
▁hunting	-11.4769
▁finishing	-11.4769
TURE	-11.477
ulous	-11.4771
ières	-11.4771
▁tools	-11.4772
▁thickness	-11.4773
▁oats	-11.4773
▁web	-11.4773
▁missed	-11.4774
▁sacrificed	-11.4775
▁diamonds	-11.4775
▁moustaches	-11.4775
▁solved	-11.4778
▁PET	-11.4778
▁lever	-11.4778
▁voluntar	-11.4779
▁vary	-11.478
▁flying	-11.4781
TY	-11.4781
▁prose	-11.4781
▁murmuring	-11.4782
▁TAKE	-11.4782
▁NIGHT	-11.4782
▁BEGINNING	-11.4782
▁spare	-11.4783
▁comment	-11.4783
▁50	-11.4784
▁perilous	-11.4784
▁conquerors	-11.4785
▁symptoms	-11.4785
▁superstitions	-11.4785
▁gusts	-11.4787
▁butcher	-11.4787
▁pardoned	-11.4788
▁detest	-11.4788
▁accordingly	-11.4789
▁elms	-11.4789
▁drove	-11.479
▁thenceforth	-11.479
▁provinces	-11.4795
▁commander	-11.4796
▁marvels	-11.4797
▁reparation	-11.4798
▁betook	-11.4798
▁inform	-11.48
▁mutual	-11.48
▁portal	-11.4801
▁shuddering	-11.4805
▁pro	-11.4805
▁sabres	-11.4811
▁prick	-11.4813
▁thundering	-11.4814
▁drums	-11.4816
name	-11.4816
▁seiz	-11.4817
▁DE	-11.4818
ip	-11.4819
▁truss	-11.4821
▁sinks	-11.4828
▁functions	-11.4828
▁upset	-11.4829
▁yields	-11.4831
▁towers	-11.4834
▁precipices	-11.4837
▁boast	-11.4838
▁raging	-11.4838
nine	-11.4838
▁impart	-11.4841
▁soiled	-11.4846
▁monks	-11.4847
▁demons	-11.4855
urs	-11.4856
▁rings	-11.4857
▁poets	-11.4868
▁split	-11.4875
▁repair	-11.4879
▁squadrons	-11.4879
▁compass	-11.488
▁pipes	-11.488
▁route	-11.4886
▁forge	-11.4886
▁carters	-11.4892
▁dwellings	-11.4911
▁Benedictine	-11.4914
▁salons	-11.4914
▁obstacles	-11.4921
▁sphinx	-11.4926
TIONS	-11.4932
▁magic	-11.4936
▁circles	-11.4941
▁LIGHT	-11.495
▁Cour	-11.4953
▁AT	-11.496
▁hinder	-11.4962
▁inert	-11.4965
▁crowns	-11.4966
▁hi	-11.497
▁laborious	-11.4977
HORI	-11.4979
▁wake	-11.4981
▁statues	-11.4982
▁CO	-11.4984
▁ta	-11.4986
Georges	-11.4988
▁15	-11.4992
▁counsels	-11.4996
▁Youth	-11.4996
▁pi	-11.4997
▁bon	-11.4998
▁wagons	-11.5001
▁whispers	-11.5012
most	-11.5018
▁errors	-11.5018
▁quays	-11.5024
lmost	-11.5035
▁notary	-11.5037
▁deign	-11.5037
▁dost	-11.5045
▁original	-11.5047
▁kills	-11.5051
▁blades	-11.5054
▁questioning	-11.5058
▁mighty	-11.5064
ious	-11.5069
ire	-11.5077
▁reports	-11.5079
▁GAVROCHE	-11.5081
▁mor	-11.5088
▁throngs	-11.5089
▁dictate	-11.5098
▁pleasures	-11.511
▁gestures	-11.511
EW	-11.5123
TS	-11.514
ienne	-11.5156
▁bat	-11.5157
ence	-11.5159
▁border	-11.5166
▁olden	-11.5166
▁forwards	-11.5171
▁sketch	-11.5187
SIDE	-11.5191
uarti	-11.5192
ans	-11.5194
▁tongues	-11.5195
▁watered	-11.5203
▁cup	-11.5205
▁passages	-11.5217
▁villages	-11.5236
▁bells	-11.5238
▁uphold	-11.5241
▁ascent	-11.5251
▁schools	-11.5254
▁couch	-11.5261
▁intend	-11.5261
rovincial	-11.5291
MEN	-11.5294
shops	-11.5305
ardly	-11.5305
▁rounds	-11.5313
HOU	-11.5321
▁reveries	-11.5324
▁waver	-11.5333
ern	-11.5344
che	-11.5348
▁shell	-11.5357
▁ga	-11.5387
when	-11.5388
▁committ	-11.5409
▁FOURT	-11.541
▁keeps	-11.5412
▁acts	-11.5414
little	-11.5426
▁induce	-11.5447
▁beach	-11.5459
▁jo	-11.546
light	-11.547
▁wasting	-11.5484
▁springs	-11.5494
ITY	-11.5507
ear	-11.5519
ex	-11.5531
▁GUI	-11.5537
▁chang	-11.5539
ors	-11.5542
ABLE	-11.5546
NG	-11.5566
▁cove	-11.5574
▁impress	-11.5577
▁Na	-11.5594
PRESEN	-11.5634
▁porters	-11.5639
pped	-11.5672
▁ne	-11.5686
people	-11.5694
▁consciences	-11.573
▁trail	-11.574
▁tri	-11.5748
▁noted	-11.5755
dominated	-11.5759
▁Ga	-11.5768
▁50-52	-11.577
post	-11.5777
agent	-11.5782
▁breaths	-11.5791
ware	-11.5804
yes	-11.5811
Vert	-11.5811
field	-11.5814
pipe	-11.5821
▁fla	-11.5821
▁Miss	-11.5823
horse	-11.583
wagon	-11.5831
blank	-11.5834
big	-11.5839
▁receiv	-11.5854
tted	-11.586
GON	-11.5861
▁bliss	-11.5866
filled	-11.587
▁im	-11.5871
END	-11.5874
glass	-11.5875
Grantaire	-11.5879
Marceau	-11.5884
ments	-11.5897
Some	-11.59
Michel	-11.5901
Perhaps	-11.5906
Paul	-11.5907
cart	-11.591
Make	-11.591
▁section	-11.591
Has	-11.5913
fault	-11.5926
ened	-11.5936
seated	-11.5937
MY	-11.5938
bones	-11.594
HIS	-11.5944
▁hay	-11.595
time	-11.5959
cat	-11.5968
▁Pe	-11.5985
bed	-11.6
▁depart	-11.6007
▁flow	-11.6011
▁bankrupt	-11.6015
ros	-11.6018
▁overthrow	-11.6022
▁rate	-11.6036
▁fed	-11.604
▁disgust	-11.6041
▁Po	-11.6041
▁intent	-11.6044
▁gnaw	-11.6045
▁remove	-11.6059
▁block	-11.6063
▁inconvenience	-11.6063
▁injunction	-11.6069
▁reputation	-11.6069
▁Savoyard	-11.6069
▁failure	-11.6069
▁vapor	-11.607
▁cabinet	-11.607
ULL	-11.607
▁squad	-11.6072
▁sarcasm	-11.6073
▁musket	-11.6073
▁revelation	-11.6075
▁image	-11.6075
beds	-11.6076
▁oyster	-11.6076
▁marvel	-11.6076
▁liberal	-11.6076
▁jour	-11.6076
▁surrounding	-11.6077
▁melon	-11.6077
▁combination	-11.6077
▁Russian	-11.6078
▁rumor	-11.6078
▁compartment	-11.6078
▁gift	-11.6079
▁miracle	-11.6079
▁feature	-11.6079
▁spectator	-11.608
▁province	-11.6081
▁Jacobin	-11.6081
▁temple	-11.6081
aving	-11.6081
▁Cul	-11.6083
▁combatant	-11.6083
▁spoon	-11.6084
▁claw	-11.6087
▁button	-11.6088
▁pool	-11.6089
▁cl	-11.6091
▁gust	-11.6091
▁beak	-11.6097
▁puff	-11.61
sur	-11.6101
▁Bonapartist	-11.6102
▁condemn	-11.6115
▁sack	-11.6115
▁bond	-11.6117
▁stall	-11.6117
▁deceiv	-11.6117
▁enlighten	-11.6118
▁assist	-11.6119
▁drown	-11.6126
▁fl	-11.6129
▁wrappe	-11.6132
▁Cl	-11.6132
▁surrender	-11.6137
▁esteem	-11.6139
▁scream	-11.614
▁disconcert	-11.614
▁brigand	-11.614
▁confound	-11.6141
▁trumpet	-11.6142
Sac	-11.6146
▁oppose	-11.6148
▁distribute	-11.6148
▁cordial	-11.6151
▁groping	-11.6151
▁retrace	-11.6151
▁vivacious	-11.6151
uite	-11.6151
▁thorough	-11.6152
▁historical	-11.6152
▁passionate	-11.6154
▁regime	-11.6155
▁fetid	-11.6155
▁immortal	-11.6155
▁architect	-11.6156
▁brazen	-11.6156
schylus	-11.6156
▁Brunswick	-11.6156
▁Captain	-11.6156
▁Catholic	-11.6156
▁Chinese	-11.6156
▁Chénier	-11.6156
▁Corneille	-11.6156
▁Gueulemer	-11.6156
▁Michael	-11.6156
▁PEOPLE	-11.6156
▁activity	-11.6156
▁afflicted	-11.6156
▁ammunition	-11.6156
▁apothecary	-11.6156
▁aureole	-11.6156
▁bastard	-11.6156
▁bequeath	-11.6156
▁centenarian	-11.6156
▁demolition	-11.6156
▁discretion	-11.6156
▁dishevelled	-11.6156
▁dormitory	-11.6156
▁earthenware	-11.6156
▁ecstatic	-11.6156
▁empurpled	-11.6156
▁giddiness	-11.6156
▁grandiose	-11.6156
▁imbecile	-11.6156
▁impregnable	-11.6156
▁impregnated	-11.6156
▁incontestable	-11.6156
▁indebted	-11.6156
▁invariably	-11.6156
▁irresistibly	-11.6156
▁lassitude	-11.6156
▁literally	-11.6156
▁mechanism	-11.6156
▁pettiness	-11.6156
▁rectilinear	-11.6156
▁refectory	-11.6156
▁repugnant	-11.6156
▁silhouette	-11.6156
▁tactics	-11.6156
▁transparent	-11.6156
▁unpaved	-11.6156
▁warrior	-11.6156
stricken	-11.6156
▁autumn	-11.6156
▁avaricious	-11.6156
▁blotter	-11.6156
▁composure	-11.6156
▁dignified	-11.6156
▁harvest	-11.6156
▁mattock	-11.6156
▁permissible	-11.6156
▁predestined	-11.6156
▁ruddy	-11.6156
▁sobriquet	-11.6156
▁PLUMET	-11.6156
▁School	-11.6156
▁discernible	-11.6156
▁expenditure	-11.6156
▁girdle	-11.6156
▁goddess	-11.6156
▁penetration	-11.6156
▁plenty	-11.6156
▁Baloup	-11.6156
▁Misery	-11.6156
▁Vieille	-11.6156
▁Egypt	-11.6156
▁umbrella	-11.6156
Médard	-11.6156
▁ajar	-11.6156
▁remorse	-11.6156
▁Albertine	-11.6156
▁fermentation	-11.6156
▁salvation	-11.6156
▁RIGHT	-11.6156
▁crimson	-11.6156
▁knives	-11.6156
▁fichu	-11.6156
▁inkstand	-11.6156
▁Hesdin	-11.6156
▁lazy	-11.6156
▁wolves	-11.6156
Fifteen	-11.6156
▁Horace	-11.6156
▁enrich	-11.6156
▁Verrerie	-11.6156
▁cruel	-11.6156
▁rancor	-11.6156
▁Auvergne	-11.6156
▁altogether	-11.6156
▁crape	-11.6156
▁Rohan	-11.6156
chaise	-11.6156
▁cradle	-11.6156
▁forbidden	-11.6156
▁Christmas	-11.6156
▁archangel	-11.6156
▁ebb	-11.6156
▁kingdom	-11.6156
▁dwarf	-11.6156
▁joviality	-11.6156
▁pedant	-11.6156
▁slipping	-11.6156
▁heavenward	-11.6156
▁hummed	-11.6156
▁recreation	-11.6156
▁echo	-11.6156
▁blockhead	-11.6156
▁temporary	-11.6156
▁consolation	-11.6156
▁Royalty	-11.6156
▁spouse	-11.6156
▁supposing	-11.6156
▁unnecessary	-11.6156
▁transparency	-11.6156
▁1831	-11.6157
▁rubbed	-11.6157
▁curled	-11.6157
▁corporal	-11.6157
▁impossibility	-11.6157
▁interment	-11.6157
▁octogenarian	-11.6157
▁renunciation	-11.6157
▁voluptuous	-11.6157
▁scaling	-11.6157
▁malice	-11.6157
▁impetuously	-11.6157
▁daily	-11.6157
▁Marché	-11.6157
▁bulletins	-11.6157
▁separation	-11.6157
▁Often	-11.6157
▁damned	-11.6157
▁outspread	-11.6157
▁estate	-11.6157
▁recourse	-11.6157
▁confront	-11.6157
▁slackened	-11.6157
▁complication	-11.6157
▁Deux	-11.6157
▁maternal	-11.6157
▁penned	-11.6157
▁excited	-11.6157
▁envy	-11.6157
▁inherited	-11.6157
▁economy	-11.6157
▁resolute	-11.6158
▁Pantin	-11.6158
▁declaration	-11.6158
▁comfortable	-11.6158
▁precipitately	-11.6158
▁nape	-11.6158
▁educated	-11.6158
▁revenge	-11.6158
▁Print	-11.6158
▁civilized	-11.6158
▁fortunate	-11.6158
▁knell	-11.6158
▁ceasing	-11.6158
▁exhaled	-11.6158
▁Everywhere	-11.6158
▁undulated	-11.6158
▁witty	-11.6158
▁visionary	-11.6158
▁utterance	-11.6158
▁humiliated	-11.6158
▁monumental	-11.6158
▁crafty	-11.6159
▁Guardsman	-11.6159
▁denies	-11.6159
▁atmosphere	-11.6159
Simon	-11.6159
▁disfigured	-11.616
▁fulfilled	-11.616
▁oppression	-11.616
▁venerated	-11.616
▁brandishing	-11.616
▁springtime	-11.616
▁Changer	-11.616
▁exercise	-11.616
▁threatened	-11.616
▁Science	-11.616
▁draped	-11.616
▁silly	-11.616
▁intervened	-11.6161
▁stool	-11.6161
▁affirmation	-11.6161
▁uneven	-11.6161
▁surnamed	-11.6161
▁believing	-11.6161
▁levelled	-11.6162
▁precipitated	-11.6162
▁mood	-11.6162
▁protector	-11.6162
Honoré	-11.6162
▁oppressed	-11.6162
▁horns	-11.6162
▁lilacs	-11.6163
▁delicac	-11.6163
▁embroidered	-11.6163
▁exaggerated	-11.6163
▁intonation	-11.6163
▁carbines	-11.6163
▁Célestins	-11.6163
▁disquieting	-11.6163
▁billows	-11.6163
▁loopholes	-11.6163
▁caresses	-11.6163
▁annihilated	-11.6164
▁rye	-11.6164
▁overheard	-11.6164
▁knocker	-11.6165
▁essay	-11.6165
▁twisted	-11.6165
▁fairly	-11.6165
▁contributed	-11.6165
aume	-11.6165
▁lieu	-11.6165
▁spies	-11.6166
▁puerile	-11.6166
▁survived	-11.6166
▁reckoning	-11.6166
▁director	-11.6167
▁wages	-11.6167
▁morality	-11.6168
▁affirmed	-11.6168
▁bitterly	-11.6168
▁endured	-11.6168
▁foreseen	-11.6168
▁evoked	-11.6168
▁overthrown	-11.6169
▁hasten	-11.617
▁altered	-11.617
▁fluttered	-11.617
▁repaired	-11.617
▁rouse	-11.6171
▁menaced	-11.6171
▁procured	-11.6171
▁opposed	-11.6172
▁tolerated	-11.6172
▁assisted	-11.6173
▁voted	-11.6173
▁stoical	-11.6173
▁soften	-11.6173
▁waked	-11.6173
▁beads	-11.6174
▁dashed	-11.6174
▁drowning	-11.6174
▁peeped	-11.6174
▁insects	-11.6174
▁supply	-11.6175
▁muscles	-11.6175
▁deserved	-11.6175
▁desperately	-11.6176
▁placing	-11.6176
▁caress	-11.6176
▁feast	-11.6176
▁coward	-11.6176
▁melted	-11.6177
tical	-11.6177
▁maintained	-11.6177
▁unequal	-11.6178
▁kisses	-11.6178
▁foresee	-11.6179
▁leaden	-11.618
▁policemen	-11.618
▁performing	-11.618
incomprehensible	-11.6181
▁totally	-11.6181
▁fencing	-11.6182
▁hubbub	-11.6182
▁inferior	-11.6182
▁maternity	-11.6182
▁abnegation	-11.6182
▁pastoral	-11.6182
▁Montmartre	-11.6182
▁waiter	-11.6182
▁unique	-11.6182
▁Loire	-11.6182
▁destinies	-11.6182
▁hips	-11.6183
▁Total	-11.6183
▁guardian	-11.6183
▁weighs	-11.6184
▁consult	-11.6185
▁scratched	-11.6185
▁tired	-11.6185
▁Alps	-11.6186
▁stumps	-11.6187
▁André	-11.6187
▁withdrawn	-11.6187
▁proposed	-11.6189
▁Hercules	-11.6189
▁bush	-11.6189
▁selected	-11.6189
▁dearly	-11.619
▁provisions	-11.6191
▁termination	-11.6191
▁meals	-11.6191
▁skirted	-11.6191
▁amused	-11.6192
▁cows	-11.6193
▁Bible	-11.6194
▁mediocre	-11.6195
more	-11.6195
▁farthing	-11.6195
▁fairy	-11.6197
▁discussing	-11.6197
▁casks	-11.6198
▁malefactors	-11.6199
▁succeeding	-11.62
▁touches	-11.6201
WAY	-11.6203
▁willingly	-11.6205
▁expend	-11.6206
▁fixing	-11.6206
▁Ben	-11.6206
▁winged	-11.6207
▁fainting	-11.6209
▁lily	-11.6209
▁maw	-11.621
▁deux	-11.6211
RAY	-11.6211
▁exacted	-11.6212
▁abuse	-11.6213
▁assassination	-11.6215
▁frightfully	-11.6215
▁traced	-11.6215
▁benches	-11.6216
▁UNDER	-11.6218
▁bedside	-11.6218
▁pear	-11.6219
▁linger	-11.622
▁prude	-11.622
▁motives	-11.6222
▁bonds	-11.6222
▁accomplices	-11.6223
▁convulsions	-11.6223
▁devices	-11.6223
vous	-11.6224
▁theories	-11.6224
air	-11.6225
▁sale	-11.6226
ens	-11.6227
▁USE	-11.623
▁sections	-11.6231
▁spoons	-11.6231
▁rumors	-11.6234
▁combinations	-11.6235
▁interested	-11.6237
▁accorded	-11.6238
▁robbers	-11.6242
ENT	-11.6243
▁shorter	-11.6244
▁starting	-11.6247
▁artists	-11.6247
▁fugitives	-11.6248
▁roi	-11.6249
▁spying	-11.6249
▁uncle	-11.6251
▁lake	-11.6251
▁learning	-11.6251
con	-11.6252
trap	-11.6252
▁powdered	-11.6256
▁borders	-11.6257
▁philanthropist	-11.6258
▁fleurs	-11.6259
▁masterpieces	-11.626
▁stiffen	-11.6261
▁supple	-11.6268
▁talents	-11.627
Stay	-11.627
▁weapons	-11.6272
▁eBooks	-11.6272
▁House	-11.6275
▁halting	-11.6277
▁cleared	-11.628
▁mill	-11.6281
▁clubs	-11.6286
▁crawls	-11.6287
▁shy	-11.6289
▁Could	-11.6289
▁continu	-11.629
▁lime	-11.6294
tion	-11.6294
▁Hill	-11.6295
▁Silence	-11.6296
▁unharness	-11.6297
▁1830.	-11.63
▁bored	-11.6301
▁Forty	-11.6302
▁anyone	-11.6304
▁strokes	-11.6308
▁Prussians	-11.6308
▁sleeves	-11.6309
▁freed	-11.6314
▁scann	-11.6319
▁workroom	-11.632
▁nests	-11.6321
▁accidents	-11.6321
▁hairy	-11.6321
▁marks	-11.6324
▁lowly	-11.6325
▁brigades	-11.6331
▁historians	-11.6332
▁Patron	-11.6335
▁doorway	-11.6336
▁angular	-11.6337
▁successful	-11.634
▁Wait	-11.634
▁projects	-11.6343
▁Sundays	-11.6345
▁guarding	-11.6346
▁comer	-11.6351
▁prowlers	-11.6359
▁perfumes	-11.6359
▁Satan	-11.6362
▁crep	-11.6363
ught	-11.6363
▁sway	-11.6363
ensive	-11.6366
arrefour	-11.6369
FUL	-11.6369
OLO	-11.6374
,—“	-11.6375
▁constrain	-11.6376
uand	-11.6378
▁bands	-11.6379
▁thrones	-11.6386
▁cracks	-11.6386
▁Eight	-11.6394
▁profiles	-11.6406
▁personages	-11.6407
▁poster	-11.6408
▁scales	-11.6409
▁blush	-11.641
▁vote	-11.6416
▁eagles	-11.6418
▁patrols	-11.6429
son	-11.643
▁enclosures	-11.6431
▁petticoats	-11.6431
▁infraction	-11.6436
▁Neu	-11.6438
▁apartments	-11.6444
law	-11.6458
▁link	-11.646
▁knitt	-11.6461
▁sayings	-11.6466
▁couples	-11.6467
▁recurr	-11.647
▁hedges	-11.6472
▁EXT	-11.6473
▁match	-11.6476
▁rescue	-11.6478
▁accepts	-11.6479
▁outrage	-11.6486
▁control	-11.6501
▁opera	-11.6505
uns	-11.6509
REME	-11.6514
▁veils	-11.6514
▁strew	-11.6518
▁boxes	-11.652
▁hoist	-11.6521
▁sounding	-11.6523
▁Dame	-11.6527
▁wer	-11.6533
▁Very	-11.6538
▁étai	-11.654
pay	-11.6544
▁permits	-11.6546
llen	-11.6555
▁SU	-11.6556
▁pious	-11.6558
▁oil	-11.6582
ification	-11.6585
OTHER	-11.6588
▁cellars	-11.6591
▁dupe	-11.6593
well	-11.6595
hood	-11.6608
▁washing	-11.6613
50	-11.6615
ron	-11.6621
▁Ph	-11.6639
▁greatness	-11.6644
▁admits	-11.6645
ug	-11.6647
▁sings	-11.6661
▁harass	-11.6684
▁halts	-11.6705
▁bourgeoise	-11.6706
▁Constant	-11.6707
▁watering	-11.6724
ud	-11.6725
UE	-11.6729
iled	-11.6733
],	-11.6736
_.—	-11.6738
▁range	-11.6762
figured	-11.6768
▁troubles	-11.6773
aimed	-11.6774
J	-11.6781
head	-11.6786
▁hail	-11.6787
table	-11.6787
▁drinks	-11.6794
ès	-11.6795
ending	-11.6804
▁amounted	-11.681
ring	-11.6824
▁plains	-11.6825
▁dismiss	-11.6835
▁goat	-11.6844
K	-11.6847
nière	-11.6848
▁rail	-11.6863
▁tombs	-11.687
▁tr	-11.6878
▁model	-11.6878
▁Bu	-11.6904
ties	-11.6917
▁chase	-11.6922
▁EXCE	-11.6925
▁dove	-11.6929
Things	-11.6946
vi	-11.6959
▁situations	-11.6963
▁respects	-11.697
▁dram	-11.6982
where	-11.7013
▁heat	-11.7013
board	-11.702
▁chimneys	-11.7024
30	-11.7046
TED	-11.7046
ying	-11.7047
▁unite	-11.7059
claimed	-11.7066
ang	-11.7068
▁Bou	-11.7081
▁une	-11.7083
▁bo	-11.7088
▁root	-11.7089
▁fr	-11.7112
nez	-11.7125
AS	-11.7126
▁hit	-11.7134
egitimacy	-11.7147
▁brows	-11.7148
▁Va	-11.7151
▁aux	-11.7161
▁hive	-11.7166
▁commune	-11.7173
those	-11.7183
▁theory	-11.7184
MIN	-11.7186
▁leap	-11.7188
gency	-11.721
your	-11.7235
▁Ro	-11.7252
▁distances	-11.7252
▁Sure	-11.7259
▁instants	-11.7262
▁prime	-11.7266
gged	-11.728
qui	-11.73
oir	-11.7303
▁pu	-11.7312
cultivated	-11.7315
▁notes	-11.7317
▁pays	-11.7322
▁submit	-11.7323
nch	-11.7326
chased	-11.7329
ured	-11.7337
▁tea	-11.7338
▁ob	-11.7341
▁Sir	-11.7345
▁comp	-11.7347
▁relapse	-11.7359
▁hast	-11.7364
▁impose	-11.7364
being	-11.7378
▁truths	-11.7384
ening	-11.7393
▁glanc	-11.7407
▁stripp	-11.7426
co	-11.743
▁bust	-11.7432
);	-11.7433
irst	-11.7434
▁Gra	-11.7439
UL	-11.744
CH	-11.7444
amour	-11.7444
▁wash	-11.7455
chair	-11.746
res	-11.7467
cold	-11.7473
known	-11.7477
aire	-11.7488
sheet	-11.7493
▁deaden	-11.7501
maid	-11.7509
its	-11.7522
Fire	-11.7535
revolution	-11.7538
▁trick	-11.7538
bag	-11.7541
▁mental	-11.7542
chimney	-11.7543
▁represent	-11.7544
Immediately	-11.7548
Cross	-11.7548
master	-11.755
▁fulfil	-11.7551
▁extricate	-11.7551
és	-11.7556
▁sho	-11.7558
Everything	-11.7559
enter	-11.7562
Only	-11.7566
penny	-11.7568
Pardon	-11.757
Which	-11.7571
General	-11.7572
Something	-11.7575
Catherine	-11.7575
beloved	-11.7575
Tuesday	-11.7575
ice	-11.7579
More	-11.7586
blades	-11.7588
Our	-11.7592
mitation	-11.7598
▁pall	-11.7599
ART	-11.7601
_]	-11.7608
ace	-11.7614
▁envelop	-11.7618
ortunately	-11.7619
Love	-11.7624
MES	-11.7639
horses	-11.7645
ered	-11.7665
EARS	-11.7667
unt	-11.767
▁millionaire	-11.7672
_)	-11.7684
CK	-11.7693
▁wave	-11.7696
▁appropriate	-11.7696
ION	-11.7701
posts	-11.7703
ma	-11.7704
▁develop	-11.7714
▁buckle	-11.7716
▁realize	-11.772
▁sweat	-11.7723
▁menace	-11.7723
THING	-11.7725
▁platoon	-11.7727
▁pickpocket	-11.7727
▁receipt	-11.7727
▁caprice	-11.7728
▁superintendent	-11.7729
▁standard	-11.773
▁airs	-11.7731
▁Duchesse	-11.7731
▁fork	-11.7732
▁wrinkle	-11.7733
DIS	-11.7733
▁temptation	-11.7736
▁monologue	-11.7736
▁citadel	-11.7736
▁vulture	-11.7736
▁explosion	-11.7736
▁congregation	-11.7736
▁float	-11.7737
▁maiden	-11.7738
▁illumination	-11.7738
▁martyr	-11.7739
▁association	-11.7739
▁exaggeration	-11.774
▁chicken	-11.774
IEU	-11.7741
▁restore	-11.7742
▁salut	-11.7742
▁pillar	-11.7743
▁blanket	-11.7743
▁edition	-11.7743
▁sailor	-11.7744
thing	-11.7744
▁accomplice	-11.7744
▁feather	-11.7744
▁symptom	-11.7744
▁convulsion	-11.7745
▁grenadier	-11.7745
▁motive	-11.7745
▁superstition	-11.7746
▁crossroad	-11.7746
▁backward	-11.7747
▁interval	-11.7747
▁newspaper	-11.7747
▁murderer	-11.7748
▁device	-11.7748
ual	-11.7748
▁conqueror	-11.7749
▁republican	-11.7753
band	-11.7753
▁slide	-11.7754
mont	-11.7756
Pardi	-11.7758
▁lamb	-11.776
▁hinge	-11.7761
▁lodger	-11.7769
▁fund	-11.7771
▁stocking	-11.7772
▁patron	-11.7774
▁extract	-11.7775
▁projectile	-11.7775
neath	-11.7775
▁LE	-11.7777
▁arrang	-11.7778
▁flutter	-11.7783
▁Per	-11.7784
▁gale	-11.7787
▁scold	-11.7787
set	-11.7789
▁cool	-11.779
▁surround	-11.779
elle	-11.7791
▁record	-11.7791
▁egg	-11.7791
▁daub	-11.7792
▁East	-11.7796
▁frighten	-11.7797
▁Vicomte	-11.7803
▁flush	-11.7803
▁string	-11.7804
▁annoy	-11.7805
▁imprint	-11.7806
▁decline	-11.7807
▁restrain	-11.7807
▁guess	-11.7807
▁recoil	-11.7807
▁stamp	-11.7807
▁smash	-11.7808
▁smooth	-11.7808
▁engage	-11.7809
▁adjust	-11.7809
▁flourish	-11.781
▁settle	-11.7811
▁frown	-11.7812
▁alter	-11.7812
TIES	-11.7813
▁Picard	-11.7814
▁stole	-11.7814
▁abject	-11.7818
▁paternal	-11.7818
▁positive	-11.7818
▁harness	-11.782
▁glare	-11.782
▁Babylon	-11.782
▁polite	-11.7821
▁unpleasant	-11.7821
▁corrupt	-11.7822
ENJOLRAS	-11.7823
MADELEINE	-11.7823
Nineteen	-11.7823
▁Auvergnat	-11.7823
▁Beyond	-11.7823
▁Bugeaud	-11.7823
▁Directory	-11.7823
▁Dismas	-11.7823
▁EACH	-11.7823
▁ENIGMA	-11.7823
▁Fannicot	-11.7823
▁Frischemont	-11.7823
▁GREAT	-11.7823
▁Glacière	-11.7823
▁Grouchy	-11.7823
▁Juvenal	-11.7823
▁Lacenaire	-11.7823
▁Madelonettes	-11.7823
▁OBSCUR	-11.7823
▁PROGRESS	-11.7823
▁Panthéon	-11.7823
▁Pontarlier	-11.7823
▁Rossomme	-11.7823
▁Somerset	-11.7823
▁Spaniard	-11.7823
▁Talleyrand	-11.7823
▁Virgil	-11.7823
▁Washington	-11.7823
▁absorption	-11.7823
▁anxieties	-11.7823
▁apostrophe	-11.7823
▁barbarous	-11.7823
▁cholera	-11.7823
▁colloquy	-11.7823
▁crystal	-11.7823
▁culpable	-11.7823
▁culprit	-11.7823
▁decoration	-11.7823
▁derivative	-11.7823
▁disappointment	-11.7823
▁dismantle	-11.7823
▁displeasing	-11.7823
▁dormitories	-11.7823
▁downstream	-11.7823
▁embrasure	-11.7823
▁emperor	-11.7823
▁fancies	-11.7823
▁ferocity	-11.7823
▁fragile	-11.7823
▁grammar	-11.7823
▁guimpe	-11.7823
▁hawthorn	-11.7823
▁immemorial	-11.7823
▁improvisation	-11.7823
▁initiative	-11.7823
▁intermittent	-11.7823
▁investigation	-11.7823
▁invincible	-11.7823
▁irruption	-11.7823
▁jargon	-11.7823
▁junction	-11.7823
▁kennel	-11.7823
▁maxim	-11.7823
▁ninny	-11.7823
▁obstinacy	-11.7823
▁paternity	-11.7823
▁pedestal	-11.7823
▁poacher	-11.7823
▁providential	-11.7823
▁reassuring	-11.7823
▁recognition	-11.7823
▁scissors	-11.7823
▁spectral	-11.7823
▁struggling	-11.7823
▁surveillance	-11.7823
Epistle	-11.7823
▁AGAIN	-11.7823
▁GRANDFATHER	-11.7823
▁GUARD	-11.7823
▁MISERY	-11.7823
▁Romainville	-11.7823
▁SUCCESS	-11.7823
▁comedian	-11.7823
▁ingratitude	-11.7823
▁remedy	-11.7823
▁transverse	-11.7823
▁undermines	-11.7823
▁undulating	-11.7823
▁Cicero	-11.7823
▁Gagny	-11.7823
▁abomination	-11.7823
▁intolerable	-11.7823
▁sensible	-11.7823
▁transmitted	-11.7823
▁equivocal	-11.7823
▁ordained	-11.7823
▁pendant	-11.7823
▁precision	-11.7823
▁modified	-11.7823
▁FORMATION	-11.7823
▁POOR	-11.7823
▁affright	-11.7823
▁BATTLE	-11.7823
▁Liberty	-11.7823
Lachaise	-11.7823
******	-11.7823
▁itinerary	-11.7823
▁antiquity	-11.7823
▁cabaret	-11.7823
▁cavity	-11.7823
▁perseverance	-11.7823
▁venomous	-11.7823
▁abdication	-11.7823
▁Hundred	-11.7823
▁humility	-11.7823
▁medicine	-11.7823
▁substance	-11.7823
▁coincidence	-11.7823
▁decay	-11.7823
▁disposition	-11.7823
▁unintelligible	-11.7823
▁plump	-11.7823
▁Reille	-11.7823
▁effusion	-11.7823
▁whistling	-11.7823
▁anchor	-11.7823
▁parents	-11.7823
▁spiral	-11.7823
▁sublimity	-11.7823
▁crupper	-11.7823
▁doctrinarian	-11.7823
▁indigent	-11.7823
▁DOES	-11.7823
▁Olympus	-11.7823
▁monarchical	-11.7823
▁nightmare	-11.7823
Aigle	-11.7823
▁downpour	-11.7823
▁infantile	-11.7823
▁groped	-11.7823
▁liberalism	-11.7823
▁freezing	-11.7823
▁grandnephew	-11.7823
▁Equality	-11.7823
▁blotting	-11.7823
▁discourse	-11.7823
▁Outside	-11.7823
▁Lyons	-11.7823
▁victories	-11.7823
▁specimen	-11.7823
▁foresight	-11.7823
▁plague	-11.7823
▁scandal	-11.7823
▁baptism	-11.7823
▁hussy	-11.7823
▁cardboard	-11.7823
▁Charter	-11.7823
▁vows	-11.7823
▁alert	-11.7823
▁DEAD	-11.7823
▁necessities	-11.7823
▁inexorably	-11.7823
▁intuition	-11.7823
▁LETTER	-11.7823
▁oblivion	-11.7823
▁tendency	-11.7823
▁OUT	-11.7823
▁generosity	-11.7823
▁majestically	-11.7823
▁manifest	-11.7823
▁worship	-11.7823
▁spiritual	-11.7823
▁petition	-11.7823
▁sanctity	-11.7823
▁freedom	-11.7823
▁stopping	-11.7823
▁mischief	-11.7823
▁agonizing	-11.7823
▁preacher	-11.7823
▁ARM	-11.7823
▁keel	-11.7823
▁obliteration	-11.7823
▁respite	-11.7823
▁bankruptcy	-11.7823
▁procuring	-11.7823
coulpe	-11.7823
▁affectionate	-11.7823
▁weakened	-11.7824
▁abandonment	-11.7824
UF	-11.7824
▁knob	-11.7824
▁reaction	-11.7824
▁1820	-11.7824
uick	-11.7824
▁speck	-11.7824
▁suffocation	-11.7824
▁Jena	-11.7824
▁bookcase	-11.7824
▁formula	-11.7824
▁degradation	-11.7824
▁Athens	-11.7824
▁repression	-11.7824
▁liberated	-11.7824
▁sparkling	-11.7824
▁brilliancy	-11.7824
▁decimated	-11.7824
▁LIF	-11.7824
▁prattle	-11.7824
▁bookseller	-11.7824
▁discouraged	-11.7824
▁unworthy	-11.7824
▁Berry	-11.7824
▁pausing	-11.7824
▁North	-11.7824
▁ENG	-11.7824
▁crooked	-11.7824
▁administered	-11.7824
▁perception	-11.7824
▁extinction	-11.7824
▁slavery	-11.7825
▁production	-11.7825
▁pickaxe	-11.7825
▁repulsed	-11.7825
▁illness	-11.7825
RANCE	-11.7825
▁slowness	-11.7825
▁untied	-11.7825
▁coverlet	-11.7825
▁drunkenness	-11.7825
▁personality	-11.7825
▁woodwork	-11.7825
▁disarmed	-11.7825
▁virginity	-11.7826
▁anxious	-11.7826
▁1811	-11.7826
▁speechless	-11.7826
▁violated	-11.7826
▁Mister	-11.7826
▁ribs	-11.7826
▁pitied	-11.7826
▁dislocated	-11.7826
▁ingenuousness	-11.7826
▁domain	-11.7826
▁gearing	-11.7826
▁assuming	-11.7826
▁concentrated	-11.7826
SISTER	-11.7826
▁baseness	-11.7826
▁docket	-11.7826
▁True	-11.7827
▁hook	-11.7827
▁Chance	-11.7827
▁imitated	-11.7827
▁cleverness	-11.7827
▁invaded	-11.7827
▁renewed	-11.7827
▁sideboard	-11.7827
▁condensed	-11.7827
▁troubling	-11.7827
▁hinted	-11.7828
▁envied	-11.7828
▁knoll	-11.7828
▁passionately	-11.7828
▁approved	-11.7828
▁adroit	-11.7828
▁battering	-11.7828
▁dishes	-11.7828
▁feebleness	-11.7828
▁exhaustion	-11.7828
▁applauded	-11.7828
▁obstruct	-11.7829
▁displaced	-11.7829
▁forgetting	-11.7829
▁efface	-11.7829
▁obstinately	-11.7829
▁shutting	-11.7829
▁bandaged	-11.7829
▁senseless	-11.783
▁sc	-11.783
▁politeness	-11.783
▁underground	-11.783
▁Suppos	-11.783
DENIS	-11.783
▁ooze	-11.783
▁enable	-11.783
▁crouched	-11.783
▁gaping	-11.7831
▁rude	-11.7831
▁undulations	-11.7831
▁brood	-11.7831
▁sincerely	-11.7831
necked	-11.7831
▁DU	-11.7831
▁plunder	-11.7832
▁seventeenth	-11.7832
▁printing	-11.7832
▁robbery	-11.7832
▁puny	-11.7832
▁repast	-11.7833
▁sphere	-11.7833
▁slightly	-11.7833
▁spurs	-11.7833
▁astounded	-11.7833
▁dissolved	-11.7833
▁inventor	-11.7833
▁orange	-11.7833
▁wavered	-11.7833
ITUDE	-11.7834
▁probability	-11.7834
▁FIND	-11.7834
▁invention	-11.7834
▁tumultuously	-11.7835
▁narrated	-11.7835
quasi	-11.7835
▁drunkard	-11.7836
▁ox	-11.7836
▁admiring	-11.7837
▁discern	-11.7837
▁Belgian	-11.7837
▁mice	-11.7837
▁unlike	-11.7837
▁growled	-11.7837
▁bless	-11.7838
ATIONS	-11.7838
▁clatter	-11.7838
▁multiply	-11.7838
preservation	-11.7839
▁brushed	-11.7839
▁guessed	-11.7839
▁infirm	-11.7839
▁Hugo	-11.7841
▁exterminated	-11.7841
▁boldly	-11.7842
▁cleverly	-11.7842
▁sapper	-11.7842
▁Jew	-11.7843
▁communicating	-11.7843
▁regularly	-11.7844
▁freaks	-11.7844
▁splendidly	-11.7845
▁scholars	-11.7845
▁vegetables	-11.7845
▁chattered	-11.7845
▁decked	-11.7846
▁weeds	-11.7846
▁hub	-11.7847
▁ignored	-11.7847
▁despised	-11.7847
▁sewermen	-11.7847
▁taper	-11.7848
▁overcome	-11.7848
▁mason	-11.7848
▁Urba	-11.7848
▁fetters	-11.7848
▁stealing	-11.7848
▁pouring	-11.7849
▁gilt	-11.785
▁divert	-11.785
▁DEP	-11.785
▁soaring	-11.785
▁coldness	-11.7851
ANCIE	-11.7852
▁howling	-11.7852
▁discreetly	-11.7852
▁unfortunately	-11.7852
▁actor	-11.7853
▁cured	-11.7853
▁bobbies	-11.7853
DUCE	-11.7853
▁Ladies	-11.7853
▁mole	-11.7853
▁varnished	-11.7854
▁communion	-11.7854
▁printer	-11.7855
▁Therefore	-11.7855
ARD	-11.7855
▁Hannibal	-11.7856
▁overwhelming	-11.7856
▁yielding	-11.7856
▁converge	-11.7857
▁prudent	-11.7858
▁groans	-11.7858
▁coughed	-11.7858
▁moire	-11.7859
▁cardinal	-11.7859
▁generations	-11.7859
▁begged	-11.7859
▁documents	-11.7859
aime	-11.786
▁pas	-11.786
▁inwardly	-11.7861
▁fortunately	-11.7862
▁patch	-11.7862
▁barking	-11.7863
▁Soult	-11.7863
stained	-11.7863
▁litter	-11.7863
▁friendly	-11.7863
▁abandoning	-11.7864
▁fig	-11.7864
▁sheath	-11.7865
▁outcome	-11.7865
▁evoke	-11.7866
▁resume	-11.7866
▁perfumed	-11.7868
▁XXII	-11.787
▁cooking	-11.7871
PE	-11.7872
BAD	-11.7873
▁arcades	-11.7873
▁wildly	-11.7874
▁patients	-11.7875
▁finest	-11.7875
▁obeying	-11.7875
▁whi	-11.7875
▁wrongly	-11.7875
▁organization	-11.7876
▁freshly	-11.7876
▁peculiarly	-11.7877
▁bind	-11.7879
▁binds	-11.788
ey	-11.788
▁honestly	-11.788
ABE	-11.7881
▁journals	-11.7882
▁lame	-11.7886
▁demi	-11.7886
▁obtaining	-11.7886
▁guests	-11.7886
▁vase	-11.7886
NON	-11.7887
▁pedestrians	-11.7888
▁steam	-11.789
▁clearing	-11.789
▁map	-11.7892
▁manufacturer	-11.7892
▁MONT	-11.7892
▁wrapp	-11.7893
▁churches	-11.7893
▁struggled	-11.7894
▁clay	-11.7896
▁eggs	-11.7897
▁nudity	-11.7897
▁ORDER	-11.7897
▁leaps	-11.7897
▁Gobelins	-11.7898
▁Yesterday	-11.7898
▁Marseillaise	-11.7898
▁strolled	-11.7898
▁stupidly	-11.7903
▁blankets	-11.7903
▁republicans	-11.7903
▁sailors	-11.7903
▁splash	-11.7904
▁breakfasted	-11.7906
▁abstain	-11.7906
▁floats	-11.7907
▁sling	-11.7908
▁dreamy	-11.791
▁prophet	-11.791
▁grasping	-11.791
▁sung	-11.7911
▁institution	-11.7912
▁stoop	-11.7913
▁recalling	-11.7915
▁fleet	-11.7917
▁liberals	-11.7917
▁Work	-11.7924
▁brands	-11.7924
▁grander	-11.7925
▁merits	-11.7926
▁stride	-11.7927
▁filling	-11.7928
▁sacks	-11.7931
▁bouquets	-11.7932
▁slides	-11.7932
▁pools	-11.7936
▁puns	-11.7937
dish	-11.7937
▁Whom	-11.7942
▁Republican	-11.7942
▁currents	-11.7946
▁solve	-11.7947
uple	-11.7949
▁blaze	-11.795
▁summons	-11.7952
▁LES	-11.7953
▁rests	-11.7954
tanic	-11.7955
▁picking	-11.7956
▁None	-11.7957
from	-11.7957
▁wil	-11.7957
▁peers	-11.7958
▁oaths	-11.7959
rom	-11.796
▁gossips	-11.7961
▁imaginations	-11.7961
▁bawl	-11.7969
▁glid	-11.797
▁persists	-11.797
▁Hot	-11.7971
don	-11.7971
▁PRE	-11.7976
▁smoked	-11.7977
cy	-11.798
▁YEAR	-11.7981
▁attracts	-11.7982
▁nurses	-11.7982
▁seams	-11.7986
▁fontis	-11.7989
▁monsieur	-11.799
▁wi	-11.799
▁FAUCHELEVENT	-11.799
▁exclaims	-11.799
▁DAY	-11.799
▁dungeons	-11.7991
▁layers	-11.7993
▁bid	-11.7993
▁Mo	-11.7993
▁SAINT	-11.7993
▁dreamers	-11.7997
▁reappears	-11.7997
▁amuses	-11.7997
CCE	-11.7998
▁glaz	-11.8
▁Help	-11.8
].	-11.8003
▁volumes	-11.8003
▁travels	-11.8009
▁attorneys	-11.8009
BL	-11.801
▁calmed	-11.8011
ELF	-11.8013
bar	-11.8014
JECT	-11.8016
▁handled	-11.8019
▁brush	-11.8023
▁clouded	-11.8023
▁scraps	-11.8025
den	-11.803
▁boards	-11.8041
▁marg	-11.8041
▁replaces	-11.8042
▁penetrates	-11.8044
▁ENTER	-11.8049
▁blinded	-11.805
▁fairs	-11.8051
▁Des	-11.8053
▁impos	-11.8054
Gr	-11.8054
▁shrug	-11.8057
▁Col	-11.806
▁massed	-11.8061
▁bounded	-11.8061
TAIN	-11.8062
▁expedients	-11.8063
robably	-11.8067
utter	-11.8069
orous	-11.8069
▁lancers	-11.8077
▁stations	-11.8081
▁enigmas	-11.8082
▁Pardon	-11.8082
▁owner	-11.8083
▁183	-11.8084
Pol	-11.8086
▁FLA	-11.8087
▁cla	-11.8088
▁tyrants	-11.8091
▁festivals	-11.8093
De	-11.8093
▁enormit	-11.8096
▁dish	-11.8101
note	-11.8102
▁toils	-11.8104
▁trials	-11.8113
▁quivers	-11.8117
▁sheds	-11.8127
▁25	-11.8131
▁edges	-11.8133
uce	-11.8135
ATION	-11.8136
▁BARR	-11.814
▁discharges	-11.8145
▁consequences	-11.8152
▁raw	-11.8154
▁murmurs	-11.8156
▁po	-11.816
▁tips	-11.8161
▁capitals	-11.8166
ize	-11.8173
▁trusted	-11.8176
▁Truanderie	-11.8176
▁beats	-11.8177
get	-11.8178
▁misfortunes	-11.8181
▁howl	-11.8189
ONNE	-11.8191
▁pictures	-11.8194
▁knave	-11.8197
▁justly	-11.82
rope	-11.8206
▁island	-11.821
▁acted	-11.8218
▁forgets	-11.8219
▁recalls	-11.8228
duds	-11.8238
▁CLA	-11.824
▁Down	-11.824
▁paste	-11.8242
▁Y	-11.8246
EIGN	-11.8252
▁delights	-11.8255
ast	-11.8266
▁beggars	-11.8268
riddled	-11.8274
▁footing	-11.8278
▁dates	-11.828
▁seasons	-11.8292
▁Ba	-11.8292
▁Var	-11.8297
▁stops	-11.8307
mus	-11.8308
▁savages	-11.8314
escorted	-11.8339
UNE	-11.8353
▁ph	-11.8353
▁Say	-11.8357
▁colored	-11.8373
▁bite	-11.8388
▁dangers	-11.8391
▁ab	-11.8396
▁thunders	-11.8414
aries	-11.8418
▁fac	-11.842
▁countenances	-11.8433
screw	-11.8445
▁writes	-11.8447
▁fevers	-11.8449
▁quadr	-11.845
▁wastes	-11.8451
ster	-11.8469
▁graves	-11.847
▁thereby	-11.8475
Roses	-11.8479
ss	-11.848
▁PA	-11.8496
nts	-11.8502
ins	-11.8503
▁saves	-11.8508
ieux	-11.8515
IG	-11.8522
ques	-11.8524
eginning	-11.8524
igny	-11.8527
Fille	-11.8531
▁ce	-11.8544
▁bu	-11.8547
▁FALL	-11.8549
▁flags	-11.8552
tial	-11.8553
TING	-11.8555
▁dolls	-11.8556
▁fortunes	-11.8558
lar	-11.8569
▁advis	-11.8574
▁GA	-11.8575
rais	-11.8593
rait	-11.8593
teller	-11.8599
▁hers	-11.8615
accessible	-11.8615
stride	-11.8615
iers	-11.8619
hot	-11.8628
ici	-11.8631
leg	-11.8652
▁horrors	-11.8668
eux	-11.8678
▁tool	-11.8681
gr	-11.8688
gue	-11.8695
ux	-11.8717
▁lightnings	-11.873
▁fe	-11.8731
▁Ly	-11.8748
▁prop	-11.8752
▁brings	-11.8769
▁despatch	-11.8781
women	-11.8792
cade	-11.8795
▁fumbl	-11.8796
▁onward	-11.8796
▁lessen	-11.8816
▁elle	-11.884
▁nut	-11.8843
▁legion	-11.8843
born	-11.8849
▁Tur	-11.8856
da	-11.8858
▁disinterested	-11.886
▁comic	-11.8863
▁XXI	-11.8864
▁St	-11.8869
▁races	-11.888
▁fashions	-11.8893
▁fri	-11.8898
ray	-11.89
▁Widow	-11.8906
▁renounc	-11.8907
▁nourish	-11.891
▁noises	-11.8917
▁stare	-11.8919
▁terrors	-11.892
come	-11.8924
▁dancer	-11.8931
ving	-11.8944
unted	-11.8945
ORE	-11.8949
OUND	-11.8955
▁cultivate	-11.8956
definable	-11.8974
ACK	-11.8979
ould	-11.8981
▁extremes	-11.8982
ote	-11.8983
▁tumble	-11.9
EENTH	-11.9003
▁exchang	-11.9005
▁Br	-11.9011
▁DES	-11.9036
DA	-11.904
WN	-11.9046
▁cha	-11.9047
onine	-11.9074
▁test	-11.9078
Ang	-11.9079
▁cor	-11.9102
idden	-11.9103
▁husbands	-11.9104
mos	-11.9106
_,—	-11.9107
nothing	-11.9108
vil	-11.9116
▁MARIUS	-11.9122
ological	-11.9128
Thénardier	-11.9139
atic	-11.9139
ro	-11.914
take	-11.9141
▁rec	-11.9144
▁emphasize	-11.9171
down	-11.9186
CAN	-11.9204
▁Am	-11.9228
ière	-11.9233
▁Tr	-11.9233
▁Leav	-11.9234
▁According	-11.9244
ba	-11.9254
▁op	-11.9255
▁Pl	-11.9255
ton	-11.9258
some	-11.9283
▁slap	-11.9286
peau	-11.9305
tte	-11.9326
▁enlarg	-11.933
easing	-11.9334
▁pier	-11.9337
▁till	-11.9364
nature	-11.9366
▁oh	-11.9373
court	-11.9379
bill	-11.938
ates	-11.9383
Enjolras	-11.9385
▁LA	-11.9388
▁Tu	-11.9389
▁solicit	-11.9395
▁IT	-11.9401
▁mi	-11.9423
▁pan	-11.9434
▁humane	-11.944
Pay	-11.945
Th	-11.9456
does	-11.9456
sergeant	-11.946
▁suitabl	-11.9464
Call	-11.9467
nail	-11.9469
▁va	-11.9472
▁strain	-11.9477
cut	-11.9481
ANT	-11.9489
lo	-11.9493
ew	-11.9498
perhaps	-11.9502
broken	-11.9504
tails	-11.9506
minded	-11.9506
,000	-11.9513
SE	-11.9518
tempered	-11.9524
FANTINE	-11.9525
Project	-11.9526
coaches	-11.953
URES	-11.9535
Tholomyès	-11.9543
▁Scotch	-11.9543
ses	-11.9546
Claude	-11.9547
▁manly	-11.9548
eaten	-11.9549
ri	-11.9555
stick	-11.9556
clothes	-11.9557
principal	-11.9557
dom	-11.9561
gardeners	-11.9565
Thou	-11.9568
knife	-11.9568
Wait	-11.957
Patron	-11.9571
WEL	-11.9572
tions	-11.9573
Whither	-11.9573
Under	-11.9574
gown	-11.9577
heap	-11.9581
Fran	-11.9583
porte	-11.9584
▁CR	-11.9588
fancy	-11.9591
▁persuade	-11.9592
key	-11.9593
▁Gall	-11.9595
hill	-11.9598
wheels	-11.9613
té	-11.9618
tail	-11.963
toile	-11.9632
rt	-11.9636
▁paw	-11.9644
loads	-11.965
rolling	-11.9652
▁states	-11.9658
ap	-11.9663
eers	-11.9664
▁Norman	-11.9669
van	-11.967
windows	-11.967
▁Has	-11.9672
faced	-11.9674
ther	-11.9683
▁blossom	-11.9684
dded	-11.9687
wagons	-11.9688
ub	-11.9697
ither	-11.9697
▁ornament	-11.9703
▁foul	-11.9708
DNESS	-11.9708
▁survive	-11.971
gardens	-11.9712
Sire	-11.9716
▁boar	-11.972
▁crumble	-11.9724
▁exterminate	-11.9725
hat	-11.9726
▁terminate	-11.9726
▁affliction	-11.9727
▁Hanoverian	-11.9727
▁lattice	-11.9727
▁engine	-11.9728
▁Spartan	-11.9732
▁pebble	-11.9732
▁kneel	-11.9733
▁blunder	-11.9734
▁deposition	-11.9734
▁thunderbolt	-11.9735
▁earthquake	-11.9736
▁axle	-11.9736
▁engagement	-11.9736
▁frequent	-11.9739
▁appellation	-11.9739
▁concession	-11.974
▁execrate	-11.974
▁miasma	-11.974
▁ankle	-11.974
▁dart	-11.9741
▁aspiration	-11.9741
▁shrub	-11.9741
▁crevice	-11.9742
▁tribunal	-11.9742
▁wrist	-11.9743
▁pedestrian	-11.9743
▁lackey	-11.9744
▁moustache	-11.9744
▁diamond	-11.9744
▁engender	-11.9745
uvre	-11.9745
▁recruit	-11.9745
▁scruple	-11.9746
▁arrangement	-11.9746
▁suburb	-11.9746
▁team	-11.9747
▁relation	-11.9747
▁guest	-11.9747
▁idler	-11.9748
renched	-11.975
▁journal	-11.9752
▁creditor	-11.9752
▁Bla	-11.9755
▁swan	-11.9771
▁elm	-11.9775
▁traitor	-11.9777
▁supplicati	-11.9779
▁Isle	-11.9784
▁banker	-11.9784
▁stray	-11.9795
▁Luc	-11.9797
▁expand	-11.9801
▁Port	-11.9802
▁inflict	-11.9803
▁MIS	-11.9803
▁repress	-11.9808
▁rumble	-11.9808
▁betray	-11.9808
▁Russia	-11.981
▁Prussia	-11.981
▁resign	-11.9812
▁lull	-11.9813
▁earning	-11.9814
▁counterfeit	-11.9815
▁divin	-11.9816
▁idle	-11.9817
▁indefinite	-11.9818
▁secure	-11.9818
▁constant	-11.9819
▁pillage	-11.9819
▁vivid	-11.9819
▁incline	-11.9819
▁brid	-11.982
▁1832.	-11.9821
▁dirt	-11.9822
▁careful	-11.9822
▁continual	-11.9822
▁peruse	-11.9822
▁democrat	-11.9822
▁taciturn	-11.9822
▁vigor	-11.9822
▁alphabet	-11.9822
▁tacit	-11.9823
▁unmarried	-11.9823
Dominique	-11.9823
JONDRETTE	-11.9823
Precisely	-11.9823
RABLES	-11.9823
WATERLOO	-11.9823
▁Africa	-11.9823
▁Aumarais	-11.9823
▁Benjamin	-11.9823
▁Billettes	-11.9823
▁Burgundy	-11.9823
▁Conciergerie	-11.9823
▁César	-11.9823
▁Descartes	-11.9823
▁Fontaine	-11.9823
▁Fontainebleau	-11.9823
▁Fraternity	-11.9823
▁Gesmas	-11.9823
▁Gisquet	-11.9823
▁Hebrew	-11.9823
▁Huguenot	-11.9823
▁Kempt	-11.9823
▁Leonidas	-11.9823
▁Livry	-11.9823
▁Marseilles	-11.9823
▁Opera	-11.9823
▁Paradise	-11.9823
▁Perpétue	-11.9823
▁Ponsonby	-11.9823
▁Président	-11.9823
▁Racine	-11.9823
▁Richefeu	-11.9823
▁Rivoli	-11.9823
▁Tinques	-11.9823
▁Tryphon	-11.9823
▁Twilight	-11.9823
▁Utrecht	-11.9823
▁Vincennes	-11.9823
▁Wurmser	-11.9823
▁absinthe	-11.9823
▁applause	-11.9823
▁applicable	-11.9823
▁aristocrat	-11.9823
▁bailiff	-11.9823
▁balcony	-11.9823
▁barbarism	-11.9823
▁benevolence	-11.9823
▁bodily	-11.9823
▁ceremony	-11.9823
▁clemency	-11.9823
▁companies	-11.9823
▁declining	-11.9823
▁dislodged	-11.9823
▁engraved	-11.9823
▁ennui	-11.9823
▁epidemic	-11.9823
▁eulogium	-11.9823
▁experiment	-11.9823
▁heretofore	-11.9823
▁horrified	-11.9823
▁impassable	-11.9823
▁incarnate	-11.9823
▁initiated	-11.9823
▁intensity	-11.9823
▁liberator	-11.9823
▁magistracy	-11.9823
▁mahogany	-11.9823
▁opportunities	-11.9823
▁ordinarily	-11.9823
▁pathetic	-11.9823
▁professed	-11.9823
▁propitious	-11.9823
▁pyramid	-11.9823
▁refractory	-11.9823
▁resplendent	-11.9823
▁resurrection	-11.9823
▁sacrificing	-11.9823
▁sagacity	-11.9823
▁savior	-11.9823
▁sceptic	-11.9823
▁scourge	-11.9823
▁sneeze	-11.9823
▁suffrage	-11.9823
▁symmetrical	-11.9823
▁testimony	-11.9823
▁trapezium	-11.9823
▁trinkets	-11.9823
▁unanimous	-11.9823
▁undecided	-11.9823
▁vengeance	-11.9823
▁whiskers	-11.9823
▁AGREE	-11.9823
▁Bauduin	-11.9823
▁Chevalier	-11.9823
▁Columbus	-11.9823
▁Miracles	-11.9823
▁Naples	-11.9823
▁Sicily	-11.9823
▁certificate	-11.9823
▁elixir	-11.9823
▁parody	-11.9823
▁potatoes	-11.9823
▁rapture	-11.9823
▁zinc	-11.9823
▁Minerv	-11.9823
▁greedy	-11.9823
▁ignoble	-11.9823
▁imprudent	-11.9823
▁intercept	-11.9823
▁invasion	-11.9823
▁lottery	-11.9823
▁pronunciation	-11.9823
▁sacrament	-11.9823
▁transcrib	-11.9823
▁Berlin	-11.9823
▁Cadran	-11.9823
▁Elba	-11.9823
▁adapted	-11.9823
▁bisca	-11.9823
▁degenerate	-11.9823
▁interposed	-11.9823
▁vertigo	-11.9823
▁wholesale	-11.9823
▁negro	-11.9823
▁occurrence	-11.9823
▁Grenelle	-11.9823
▁Talma	-11.9823
▁antiquated	-11.9823
▁depict	-11.9823
▁remote	-11.9823
▁Clusium	-11.9823
▁gouty	-11.9823
▁monoton	-11.9823
▁turkey	-11.9823
▁FOUNDATION	-11.9823
▁average	-11.9823
▁fishwife	-11.9823
▁fragrant	-11.9823
▁Delort	-11.9823
▁Rabel	-11.9823
▁firmament	-11.9823
▁hillock	-11.9823
▁refusing	-11.9823
Agreed	-11.9823
▁Cournet	-11.9823
▁Mirabeau	-11.9823
▁Neuilly	-11.9823
▁Despair	-11.9823
▁bowels	-11.9823
▁repentance	-11.9823
▁besiegers	-11.9823
▁complaisance	-11.9823
▁empties	-11.9823
▁muslin	-11.9823
▁stagger	-11.9823
▁Darkness	-11.9823
▁restaurant	-11.9823
▁Jéna	-11.9823
▁disposal	-11.9823
▁linden	-11.9823
▁bucoli	-11.9823
▁defiance	-11.9823
▁engulfment	-11.9823
▁resounded	-11.9823
▁Odéon	-11.9823
▁rendezvous	-11.9823
Answer	-11.9823
▁landscape	-11.9823
▁chalk	-11.9823
▁coupé	-11.9823
▁architecture	-11.9823
▁communities	-11.9823
▁Unknown	-11.9823
barrelled	-11.9823
▁effrontery	-11.9823
▁Street	-11.9823
▁Genlis	-11.9823
▁fictions	-11.9823
▁magnetic	-11.9823
▁prolongation	-11.9823
▁Nuncio	-11.9823
▁artistically	-11.9823
▁monasticism	-11.9823
▁compact	-11.9823
▁encouragement	-11.9823
▁midway	-11.9823
▁recent	-11.9823
▁infirmities	-11.9823
▁prosecutor	-11.9823
▁darling	-11.9823
Avoye	-11.9823
▁clayey	-11.9823
▁NAME	-11.9823
▁chastisement	-11.9823
▁decipher	-11.9823
▁shattered	-11.9823
▁LONG	-11.9823
▁impious	-11.9823
▁parcel	-11.9823
▁verified	-11.9823
▁sordid	-11.9823
credible	-11.9823
▁pretension	-11.9823
▁holster	-11.9823
▁sympathy	-11.9823
▁faculties	-11.9823
▁Words	-11.9823
▁Terrible	-11.9823
▁fillip	-11.9823
▁incurable	-11.9823
▁sincerity	-11.9823
▁garland	-11.9823
▁fathomless	-11.9823
▁Sieur	-11.9823
▁assistant	-11.9823
▁opulent	-11.9823
▁continent	-11.9823
▁destruction	-11.9823
▁extermination	-11.9823
▁injury	-11.9823
▁argot	-11.9823
▁peerage	-11.9823
▁marshes	-11.9823
▁Socrates	-11.9823
▁factories	-11.9823
▁noonday	-11.9823
▁divination	-11.9823
▁horribly	-11.9823
▁infirmity	-11.9823
▁silverware	-11.9823
▁hypocrisy	-11.9823
▁huddle	-11.9824
▁paltry	-11.9824
▁chatting	-11.9824
▁convalescent	-11.9824
▁announcement	-11.9824
▁Eve	-11.9824
▁impure	-11.9824
▁referred	-11.9824
▁canvas	-11.9824
▁wool	-11.9824
▁Genoa	-11.9824
▁housekeeping	-11.9824
▁BENE	-11.9824
▁Friday	-11.9824
▁constitutional	-11.9824
▁compassionate	-11.9824
▁recommendation	-11.9824
▁tension	-11.9824
▁Passy	-11.9824
▁Charlotte	-11.9824
▁bigger	-11.9824
▁Formerly	-11.9824
▁Infinite	-11.9824
▁uncertain	-11.9824
▁oscillation	-11.9824
▁Maubert	-11.9824
▁incense	-11.9824
▁cattle	-11.9824
▁ignominy	-11.9824
▁environ	-11.9824
▁uncovered	-11.9824
▁pedler	-11.9824
▁rallying	-11.9824
▁Vienna	-11.9824
▁chasse	-11.9824
▁History	-11.9824
▁lacerated	-11.9824
▁testament	-11.9825
▁cheerfulness	-11.9825
▁depression	-11.9825
▁definitely	-11.9825
PLACE	-11.9825
▁buzzing	-11.9825
▁dumb	-11.9825
▁lark	-11.9825
▁administering	-11.9825
▁cautiously	-11.9825
▁whitewashed	-11.9825
▁accusation	-11.9825
▁abstract	-11.9825
▁Count	-11.9825
▁Jacquin	-11.9826
▁committee	-11.9826
▁troublesome	-11.9826
▁Peter	-11.9826
▁cornice	-11.9826
▁humiliation	-11.9826
▁overpower	-11.9826
▁sunrise	-11.9826
▁Toulouse	-11.9826
▁Prudhomme	-11.9826
▁superiority	-11.9826
▁faded	-11.9827
▁drenched	-11.9827
▁vexation	-11.9827
▁emphasizing	-11.9827
▁hygiene	-11.9827
▁inextricable	-11.9827
▁clutches	-11.9827
louse	-11.9827
▁cuirasses	-11.9827
▁popularity	-11.9827
▁sparkled	-11.9827
▁indefinitely	-11.9827
Buonaparte	-11.9827
▁anybody	-11.9827
▁curate	-11.9827
zag	-11.9827
▁rejoined	-11.9827
▁defined	-11.9827
▁preached	-11.9828
▁slashed	-11.9828
▁Villon	-11.9828
▁boldness	-11.9828
▁sworn	-11.9828
▁scarf	-11.9828
▁positively	-11.9828
▁nakedness	-11.9828
▁doubtful	-11.9828
▁pleasing	-11.9828
▁benumbed	-11.9828
▁ravages	-11.9828
▁comedy	-11.9828
▁trampling	-11.9828
▁proclaimed	-11.9828
▁satisfy	-11.9828
▁adoring	-11.9829
▁winked	-11.9829
▁job	-11.9829
▁disposed	-11.9829
▁paralyze	-11.9829
▁plaque	-11.9829
▁sparely	-11.9829
▁vivaciously	-11.9829
▁translated	-11.9829
▁slime	-11.9829
▁flattered	-11.9829
▁grumbling	-11.9829
▁tribune	-11.9829
Manteaux	-11.9829
▁neatly	-11.9829
▁slasher	-11.9829
▁disengaged	-11.983
▁pontifical	-11.983
▁dearest	-11.983
▁uprooted	-11.983
▁interfered	-11.9831
▁prosper	-11.9831
▁Faux	-11.9831
▁exceeded	-11.9831
état	-11.9832
▁affirm	-11.9832
▁quietly	-11.9832
▁gratis	-11.9832
▁glorious	-11.9832
▁gambler	-11.9832
▁bien	-11.9832
▁difficulties	-11.9832
▁poem	-11.9832
▁whistled	-11.9832
▁slice	-11.9833
▁commerce	-11.9833
▁knight	-11.9833
▁entrails	-11.9833
▁vigorously	-11.9833
▁dimly	-11.9833
▁ramifications	-11.9833
▁memoirs	-11.9833
▁indecent	-11.9833
▁removing	-11.9834
▁converting	-11.9834
▁pocketbook	-11.9834
▁concert	-11.9835
▁mouldy	-11.9836
▁divides	-11.9836
Forward	-11.9836
unette	-11.9836
▁amalgamated	-11.9836
▁turnkey	-11.9837
▁unjustly	-11.9837
spinning	-11.9837
▁shooting	-11.9837
▁miners	-11.9837
▁pail	-11.9838
▁writhe	-11.9838
▁contractor	-11.9838
▁straightening	-11.9838
▁palpable	-11.9838
▁retard	-11.9838
▁narrate	-11.9839
▁inquir	-11.9839
▁strayed	-11.9839
▁sofa	-11.9839
▁resigned	-11.984
▁confirm	-11.9841
▁banner	-11.9841
▁darting	-11.9841
▁proudly	-11.9841
▁diverted	-11.9841
▁inevitable	-11.9841
▁augmentation	-11.9841
▁wonderfully	-11.9842
▁respectfully	-11.9842
▁daubing	-11.9842
▁oddly	-11.9843
▁fashionable	-11.9843
erial	-11.9843
▁patched	-11.9843
▁imprinted	-11.9843
▁perused	-11.9843
▁wonder	-11.9843
▁eternally	-11.9844
▁muttering	-11.9844
▁visor	-11.9844
▁enlarged	-11.9845
uvres	-11.9845
▁fab	-11.9845
▁Frenchmen	-11.9846
hearted	-11.9846
▁mortal	-11.9846
▁imposing	-11.9846
▁screamed	-11.9847
▁religiously	-11.9848
▁brim	-11.9848
▁pew	-11.9849
▁gnawing	-11.985
▁taller	-11.985
▁lids	-11.985
▁detested	-11.985
▁tulips	-11.985
▁dignities	-11.985
▁instruments	-11.985
▁fagots	-11.9851
▁preserv	-11.9851
glued	-11.9851
▁indistinctly	-11.9851
▁swarmed	-11.9852
▁prone	-11.9852
▁mournfully	-11.9852
▁distinguishes	-11.9852
▁contradict	-11.9853
▁rumbled	-11.9853
▁rescued	-11.9853
▁strategic	-11.9853
▁shopkeeper	-11.9853
Unless	-11.9854
▁hastening	-11.9854
▁threatens	-11.9854
▁reversed	-11.9855
▁danced	-11.9855
▁costly	-11.9856
▁workshops	-11.9857
▁swoon	-11.9857
▁Charlot	-11.9858
▁tenacious	-11.9858
▁loyalty	-11.9859
▁enemies	-11.9859
▁Félix	-11.9859
▁Anglès	-11.9859
▁Ancient	-11.986
▁grotto	-11.986
▁Insurrection	-11.986
▁Yet	-11.986
▁quill	-11.986
▁warmly	-11.9861
VELLE	-11.9861
ping	-11.9861
▁Jacquerie	-11.9862
▁eclipsed	-11.9863
▁queen	-11.9864
▁relieve	-11.9864
bouillet	-11.9864
▁plucked	-11.9864
▁patriot	-11.9865
▁Colb	-11.9865
▁nephew	-11.9865
▁Titans	-11.9866
▁ingrate	-11.9867
▁exclaiming	-11.9867
▁blast	-11.9867
Anything	-11.9868
▁ruts	-11.9868
▁mamma	-11.9868
▁portresses	-11.9868
▁reinforcements	-11.9868
▁visitors	-11.9869
▁bridle	-11.987
▁Bank	-11.9871
BUT	-11.9871
▁daytime	-11.9871
▁stammering	-11.9871
▁11	-11.9871
▁stew	-11.9871
ha	-11.9872
▁Ever	-11.9873
▁baby	-11.9873
aved	-11.9873
▁gut	-11.9874
▁Belle	-11.9876
▁flinging	-11.9878
▁spotted	-11.9879
▁cleaning	-11.988
▁housekeeper	-11.988
▁seals	-11.9881
▁reasonable	-11.9881
▁resisting	-11.9881
▁skirting	-11.9882
▁knocking	-11.9882
▁corrected	-11.9882
▁furrows	-11.9883
▁shoots	-11.9883
▁restrained	-11.9884
▁astonishing	-11.9885
▁compliments	-11.9886
▁proclamations	-11.9886
▁arguments	-11.9886
▁crawling	-11.9887
▁bribe	-11.9888
▁Fine	-11.989
▁Must	-11.9891
▁ve	-11.9892
▁villainous	-11.9892
▁comprehending	-11.9893
▁limited	-11.9894
▁goose	-11.9896
▁devoured	-11.9897
▁inserted	-11.99
▁funds	-11.9901
natured	-11.9902
▁holder	-11.9902
▁lackeys	-11.9904
▁tribunals	-11.9904
▁crevices	-11.9904
▁creditors	-11.9905
▁shrubs	-11.9905
▁projection	-11.9905
▁sparrows	-11.9905
▁youngest	-11.9907
▁zig	-11.9908
▁raft	-11.9912
▁scrupulous	-11.9913
▁gallant	-11.9913
▁copying	-11.9914
▁blonde	-11.9914
▁Embrun	-11.9915
▁Joseph	-11.9915
▁NAPOLEON	-11.9915
▁Woman	-11.9915
▁actors	-11.992
▁feathers	-11.992
GARD	-11.9921
▁editions	-11.9921
▁pillars	-11.9921
▁Roi	-11.9922
▁rustle	-11.9922
▁hideously	-11.9924
▁wreath	-11.9925
▁largest	-11.9929
▁dresses	-11.993
▁frequented	-11.993
▁provisional	-11.9931
▁puffs	-11.9932
▁webs	-11.9934
▁flamed	-11.9935
▁elbowed	-11.9937
▁elected	-11.9937
▁fobs	-11.9939
▁buck	-11.9939
▁revelations	-11.9941
▁watches	-11.9941
▁muskets	-11.9942
▁drying	-11.9942
ime	-11.9944
▁disperse	-11.9947
▁cowards	-11.995
▁dispense	-11.9951
▁seventh	-11.9955
ST	-11.9956
▁repeating	-11.9957
▁glassy	-11.9957
▁bricks	-11.9957
▁Blancs	-11.9957
▁artisans	-11.9958
slaves	-11.9958
▁consume	-11.9959
▁peals	-11.9959
▁vagabonds	-11.9959
▁couplets	-11.996
▁gang	-11.9964
▁array	-11.9965
▁Ne	-11.9969
▁beadle	-11.9972
▁kicks	-11.9973
▁Thirty	-11.9974
▁streak	-11.9976
▁preoccupations	-11.9977
▁ram	-11.9977
▁shrieks	-11.9979
▁releas	-11.9982
▁nerv	-11.9983
▁West	-11.9986
▁flows	-11.9987
▁Days	-11.9989
▁desk	-11.999
▁jolt	-11.9991
▁careless	-11.9992
▁transports	-11.9994
▁dances	-11.9996
▁robes	-11.9998
▁shakes	-12
▁laborers	-12.0002
▁Gu	-12.0004
▁revere	-12.0005
▁Se	-12.0007
▁Seven	-12.001
▁persistenc	-12.0016
▁garnish	-12.0017
▁pe	-12.0017
▁entertain	-12.0019
▁rust	-12.0024
▁afar	-12.0024
▁pit	-12.0026
▁Alliance	-12.0029
▁Par	-12.003
▁orphans	-12.0031
▁pallets	-12.0031
▁keeper	-12.0032
ol	-12.0032
▁reverse	-12.0034
▁likeness	-12.0034
▁alighted	-12.0034
▁scars	-12.0036
houses	-12.0037
▁dissolve	-12.0039
▁BR	-12.004
▁reserves	-12.0043
ow	-12.0044
▁non	-12.0044
▁neutral	-12.0048
▁roast	-12.0049
▁Heavens	-12.005
▁Bourdon	-12.0054
▁describe	-12.0057
▁soar	-12.0058
lotte	-12.0059
▁clothe	-12.006
White	-12.0061
▁trunks	-12.0064
▁metaphors	-12.0065
even	-12.0066
▁sensations	-12.0068
▁treasures	-12.0071
ré	-12.0074
▁halo	-12.0076
▁calming	-12.0079
▁tide	-12.0081
▁maids	-12.0081
▁Royalists	-12.0084
▁pacific	-12.0089
▁spr	-12.0089
▁poorly	-12.0092
bra	-12.0094
barrels	-12.0101
▁honored	-12.0101
▁format	-12.0102
▁vessels	-12.0104
▁constructions	-12.0107
▁smells	-12.0107
▁drawers	-12.0107
▁Ul	-12.0112
very	-12.0116
▁vicar	-12.012
▁urchins	-12.0122
▁visages	-12.0122
collector	-12.0129
▁mal	-12.0131
▁tou	-12.0135
▁vis	-12.0137
▁refuses	-12.014
▁systems	-12.014
▁kerchief	-12.014
▁penny	-12.0144
▁extricat	-12.0152
moderately	-12.0154
▁Young	-12.0156
▁peck	-12.0163
▁Sire	-12.0167
▁OTHER	-12.0168
▁ships	-12.0173
▁sells	-12.0175
OW	-12.0182
cited	-12.0184
▁shares	-12.0186
▁fools	-12.0186
▁peak	-12.0189
als	-12.019
▁pawn	-12.0193
▁Michel	-12.0202
lion	-12.0212
▁solitudes	-12.0214
▁tenant	-12.0215
▁highways	-12.0216
▁Thi	-12.0217
rant	-12.022
gs	-12.0221
▁signing	-12.0227
xcept	-12.0228
▁griefs	-12.023
▁pound	-12.0232
▁thickets	-12.0249
▁Show	-12.0255
▁wishing	-12.0261
▁theatres	-12.0268
▁meditations	-12.0268
▁DON	-12.0268
▁multitudes	-12.0269
▁uprisings	-12.0269
▁cuff	-12.0273
▁stagnati	-12.0278
sulted	-12.0278
angular	-12.0283
ca	-12.0286
▁taverns	-12.0291
▁irons	-12.0292
▁gorge	-12.0294
ibus	-12.0295
▁shirts	-12.0298
▁Hunt	-12.0304
sk	-12.0306
sette	-12.0311
▁papa	-12.0312
Matt	-12.0312
tious	-12.0322
illon	-12.0322
▁Stop	-12.0323
▁flooring	-12.0324
▁thresholds	-12.0324
wed	-12.0325
▁caus	-12.0332
▁rung	-12.0337
▁commands	-12.034
ti	-12.0341
▁inspectors	-12.0341
▁triumphs	-12.0343
▁rules	-12.0343
▁lacks	-12.0344
▁reserv	-12.0346
Je	-12.0348
▁Fa	-12.0348
▁industri	-12.0352
▁ceilings	-12.036
rin	-12.0364
▁feelings	-12.0365
▁watcher	-12.0366
ims	-12.0367
▁fees	-12.0368
▁regards	-12.037
▁wire	-12.0375
ades	-12.0376
▁seats	-12.038
▁purses	-12.0382
▁anger	-12.0394
▁alternate	-12.0401
▁substitute	-12.0404
LATION	-12.0405
▁vest	-12.0407
▁stirs	-12.0411
▁germinat	-12.0413
▁avail	-12.042
ite	-12.0425
▁religions	-12.0432
▁profane	-12.0452
▁violences	-12.0452
▁na	-12.0462
stitution	-12.0466
▁hood	-12.047
MAN	-12.0477
▁dinners	-12.0489
▁rivers	-12.0494
▁covers	-12.0499
cent	-12.0506
▁individuals	-12.0506
▁clank	-12.0516
▁soap	-12.0523
▁charges	-12.0524
▁mirrors	-12.0526
▁jeer	-12.0528
▁Pi	-12.0528
▁answers	-12.0529
▁attics	-12.0533
▁throats	-12.0533
▁discontinue	-12.0536
▁cudgels	-12.0547
ours	-12.056
▁trample	-12.057
▁rummag	-12.0576
▁impell	-12.0578
▁fires	-12.0588
om	-12.059
▁labors	-12.0593
▁dike	-12.0593
▁fertil	-12.0595
terior	-12.06
chained	-12.0603
▁mistakes	-12.0604
▁mines	-12.0611
▁emb	-12.0613
▁lump	-12.0625
▁hatreds	-12.0635
▁blouses	-12.0637
▁feign	-12.0644
▁resin	-12.0646
X	-12.0652
▁gas	-12.0655
▁MER	-12.0658
tel	-12.0662
▁jostle	-12.0666
▁br	-12.0668
▁revolts	-12.0669
▁grapes	-12.0669
▁Bé	-12.0679
ged	-12.0688
▁Cos	-12.069
ved	-12.069
PRE	-12.0692
▁perceives	-12.0693
ds	-12.0698
▁Lu	-12.0705
▁spreads	-12.0714
anuel	-12.0714
▁befit	-12.0717
▁sta	-12.0718
ush	-12.0742
has	-12.0752
▁Hold	-12.0759
SS	-12.0771
▁wench	-12.0791
▁combats	-12.0795
ollow	-12.0801
ère	-12.0807
Vous	-12.0816
▁entrances	-12.0824
▁Spring	-12.0827
ill	-12.0839
▁TRA	-12.0839
▁gi	-12.0847
nformation	-12.0863
▁noses	-12.0889
▁DO	-12.0891
▁butter	-12.0896
▁Chamber	-12.0897
▁compar	-12.0903
▁expectation	-12.0908
▁gamins	-12.0913
▁honors	-12.0914
▁consecrat	-12.0918
EEN	-12.0931
owing	-12.095
▁minu	-12.0951
▁Therm	-12.0953
arrow	-12.0955
▁com	-12.0955
▁Kings	-12.0967
their	-12.0967
▁Power	-12.0967
▁debouch	-12.0973
▁insurrections	-12.0975
▁arts	-12.0985
hi	-12.1004
sée	-12.1011
“	-12.1011
▁alight	-12.1016
▁cares	-12.1019
cur	-12.1031
▁scrawl	-12.1037
CESS	-12.1042
sure	-12.1045
▁tub	-12.1046
▁prevents	-12.1055
AC	-12.1057
▁tro	-12.1067
▁tw	-12.107
▁spaces	-12.1079
change	-12.108
▁spar	-12.1084
▁abutt	-12.1086
▁digest	-12.1089
▁notion	-12.109
under	-12.1091
ique	-12.1113
”?	-12.114
notes	-12.1161
▁west	-12.1166
▁establish	-12.1169
ets	-12.1189
▁preferr	-12.1207
▁organ	-12.1208
LIMI	-12.121
▁fil	-12.1213
ner	-12.1236
ag	-12.1236
spired	-12.124
sars	-12.1247
fulness	-12.1249
▁advise	-12.1267
wing	-12.1276
▁gras	-12.1285
▁gr	-12.1293
▁te	-12.1295
lle	-12.1302
ich	-12.1303
OSE	-12.1309
tu	-12.1313
▁Fu	-12.133
bred	-12.1332
▁imp	-12.1341
▁instruct	-12.1341
▁god	-12.1346
ila	-12.1347
▁doctors	-12.1347
▁clapp	-12.1349
▁Sur	-12.1351
▁abut	-12.1356
▁blacken	-12.1363
wards	-12.1375
dressed	-12.1376
then	-12.1381
tera	-12.1392
ERS	-12.14
ability	-12.1403
▁Gi	-12.1414
ature	-12.142
.,	-12.1421
▁Ex	-12.1423
▁cu	-12.1439
pon	-12.1439
nstead	-12.144
▁dev	-12.1451
▁morta	-12.1451
▁prie	-12.148
lin	-12.1503
ends	-12.1519
▁cur	-12.1522
▁facult	-12.1526
sts	-12.153
▁AL	-12.1538
▁ces	-12.1546
aking	-12.1547
passed	-12.1555
▁iniquit	-12.1563
▁escort	-12.1564
zed	-12.1574
▁WI	-12.1575
ay	-12.1576
bon	-12.1588
▁Sin	-12.1601
rus	-12.1605
.)	-12.1612
▁dilate	-12.1613
isinterestedness	-12.1625
armed	-12.1626
▁ra	-12.1636
▁ag	-12.1651
aunt	-12.1652
vait	-12.1655
▁wanton	-12.1666
▁circulat	-12.1673
▁ac	-12.1681
▁Beau	-12.1684
▁dia	-12.1686
lice	-12.1688
▁jewel	-12.1692
urin	-12.1696
cul	-12.1699
SION	-12.1702
ab	-12.1706
hen	-12.1716
point	-12.172
▁Mac	-12.1724
ures	-12.1726
▁XX	-12.1727
NO	-12.1731
▁dig	-12.175
▁30	-12.1762
hort	-12.1764
phy	-12.1778
put	-12.178
till	-12.1782
NT	-12.1801
ure	-12.1807
eyed	-12.1813
because	-12.1827
ui	-12.1832
▁bother	-12.1833
iage	-12.1837
dling	-12.1838
rous	-12.1848
Or	-12.1853
▁deserve	-12.1853
sh	-12.1861
hour	-12.1862
▁SA	-12.1884
▁cape	-12.1884
top	-12.1894
non	-12.1904
IST	-12.1904
Thank	-12.1912
twenty	-12.1918
grand	-12.1921
▁Antoine	-12.1921
apeau	-12.193
These	-12.193
▁HU	-12.1938
KE	-12.1941
▁crop	-12.1943
Ch	-12.1947
Napoleon	-12.1949
making	-12.1952
▁applie	-12.1957
▁belle	-12.1958
KING	-12.196
mal	-12.1965
ground	-12.1965
bottom	-12.1968
▁MOR	-12.1968
Her	-12.1971
▁toss	-12.1971
▁patient	-12.1973
VE	-12.1977
bishop	-12.1978
▁HEA	-12.1982
break	-12.1982
paid	-12.1985
▁cr	-12.1988
bread	-12.1993
▁encourag	-12.1996
▁Mari	-12.2
▁Pas	-12.2001
ettes	-12.2006
▁pur	-12.2009
NATION	-12.201
worthy	-12.2012
’”	-12.2016
breast	-12.2016
EL	-12.2017
why	-12.2017
▁tramp	-12.202
Gentlemen	-12.2022
MADAM	-12.2023
vel	-12.2026
lady	-12.2028
People	-12.2035
▁sle	-12.2038
articulate	-12.204
▁liar	-12.2045
lantern	-12.2047
drinker	-12.2049
Was	-12.2049
FOUR	-12.2049
Sister	-12.2051
▁perch	-12.2053
tresses	-12.2054
cellar	-12.2055
bird	-12.2055
laying	-12.2055
established	-12.2057
SLANG	-12.2059
powerful	-12.206
SAINT	-12.2061
MOTHER	-12.2062
Still	-12.2062
Alliance	-12.2063
Abbé	-12.2064
FAUCHELEVENT	-12.2066
Like	-12.2066
Help	-12.2066
fontis	-12.2067
monsieur	-12.2067
Through	-12.2067
devotion	-12.2068
fifth	-12.2068
Silence	-12.2069
Ursule	-12.2069
hunger	-12.2069
Matelote	-12.2071
Comte	-12.2071
ville	-12.2071
Forty	-12.2071
▁WOU	-12.2072
giving	-12.2074
mission	-12.2077
warden	-12.208
▁ACT	-12.208
lucky	-12.2081
glasses	-12.2083
since	-12.2083
Royal	-12.2083
▁congratulate	-12.2085
stocks	-12.2088
dress	-12.2093
▁produc	-12.2097
sses	-12.2108
added	-12.2112
sisters	-12.2115
ps	-12.2117
▁crow	-12.212
beams	-12.2122
AIN	-12.2123
ld	-12.2123
Seven	-12.2129
WHI	-12.2135
▁Van	-12.2136
tur	-12.2137
▁ri	-12.2146
laces	-12.2148
ssuredly	-12.2152
▁Ge	-12.2154
taste	-12.216
▁era	-12.2167
▁chaplain	-12.2171
atus	-12.2181
MONS	-12.2184
love	-12.2184
▁twist	-12.2187
pots	-12.2202
▁illumin	-12.2204
▁bleed	-12.2217
▁combine	-12.2217
▁creak	-12.222
orgue	-12.2222
▁orator	-12.2222
▁interrogate	-12.2224
▁fanatic	-12.2225
▁paroxysm	-12.2227
▁vaudeville	-12.2227
▁torrent	-12.2227
▁patriarch	-12.2227
▁ulcer	-12.2227
▁declaimer	-12.2228
▁terrace	-12.2228
▁Council	-12.2229
▁lounge	-12.2229
▁friendship	-12.2229
▁lands	-12.2229
▁brook	-12.223
ulture	-12.2231
COME	-12.2233
▁suspender	-12.2234
▁guarantee	-12.2236
▁cask	-12.2236
▁aptitude	-12.2236
▁eruption	-12.2236
▁toilette	-12.2236
▁oracle	-12.2237
▁Ca	-12.2238
▁shaft	-12.2238
Mi	-12.2239
▁hussar	-12.224
▁GO	-12.224
▁cluster	-12.224
CAU	-12.2241
▁proclamation	-12.2241
▁argument	-12.2241
▁excavation	-12.2242
▁compliment	-12.2242
▁snare	-12.2242
▁legend	-12.2243
BRU	-12.2243
▁statement	-12.2244
▁arcade	-12.2245
Citizen	-12.2245
▁necklet	-12.2245
▁fathom	-12.2246
▁furrow	-12.2246
▁regulation	-12.2246
▁companion	-12.2246
▁dragoon	-12.2246
▁footstep	-12.2247
▁slab	-12.2248
▁pearl	-12.225
▁payment	-12.225
Mon	-12.2251
SES	-12.2251
RN	-12.2252
▁cipher	-12.2253
▁Bel	-12.2254
▁parasite	-12.2255
▁marine	-12.2255
▁panel	-12.2256
▁allowance	-12.2257
▁novice	-12.2258
▁idol	-12.2264
Mer	-12.2266
EAU	-12.2267
▁slack	-12.227
VEL	-12.2276
▁oak	-12.2278
emin	-12.2282
▁petit	-12.2282
▁mutter	-12.2283
▁unfold	-12.2284
FACE	-12.2284
▁illuminat	-12.2286
▁elect	-12.2288
▁astound	-12.2289
▁malefactor	-12.2289
▁reckon	-12.229
▁vocation	-12.2292
panes	-12.2296
▁Breton	-12.2297
▁exhaust	-12.2298
▁clutch	-12.2299
▁jail	-12.23
▁boa	-12.2301
▁cherish	-12.2301
▁shaving	-12.2303
▁reconstruct	-12.2305
▁relax	-12.2305
▁thorn	-12.2305
▁welcome	-12.2306
▁babble	-12.2306
▁detach	-12.2307
▁adopt	-12.2307
▁accustom	-12.2307
▁absorb	-12.2307
▁Austria	-12.2307
▁praise	-12.2308
▁stifle	-12.2309
▁authorize	-12.2311
▁punish	-12.2311
▁communicat	-12.2311
▁scatter	-12.2311
▁characterize	-12.2312
doors	-12.2312
▁quote	-12.2312
▁monarch	-12.2313
▁jack	-12.2314
▁scrutinize	-12.2315
upreme	-12.2315
appiness	-12.2316
pposite	-12.2316
cated	-12.2316
▁cuirass	-12.2317
▁furtive	-12.2317
▁brusque	-12.2317
▁Tiber	-12.2318
▁conscientious	-12.2318
▁suspend	-12.2318
▁gratuitous	-12.2318
ULT	-12.2318
▁brisk	-12.232
▁Candle	-12.232
▁curse	-12.232
athedral	-12.2321
▁historic	-12.2321
▁loft	-12.2321
▁exaggerate	-12.2321
▁eff	-12.2322
▁constitution	-12.2322
▁ascetic	-12.2322
uatre	-12.2322
▁Lamoignon	-12.2323
▁ASTONISH	-12.2323
▁DELIVER	-12.2323
▁HISTORIC	-12.2323
▁PRINCIP	-12.2323
COMPOSITION	-12.2323
CORINTHE	-12.2323
DEPOSIT	-12.2323
EXPLANATION	-12.2323
LISH	-12.2323
NARDIER	-12.2323
STRATEGY	-12.2323
Sergeant	-12.2323
Sicile	-12.2323
TENANT	-12.2323
villiers	-12.2323
▁ABSOLUTE	-12.2323
▁Apollo	-12.2323
▁Arcola	-12.2323
▁Argenteuil	-12.2323
▁Aventine	-12.2323
▁Bamatabois	-12.2323
▁Beaumarchais	-12.2323
▁Beccaria	-12.2323
▁Bertrand	-12.2323
▁Blomet	-12.2323
▁Bretagne	-12.2323
▁Carmelite	-12.2323
▁Carnival	-12.2323
▁Christopher	-12.2323
▁Cleopatra	-12.2323
▁Clinton	-12.2323
▁Clocheperce	-12.2323
▁Condorcet	-12.2323
▁Cromwell	-12.2323
▁DIFFICULTY	-12.2323
▁DRUNK	-12.2323
▁Department	-12.2323
▁Desmoulins	-12.2323
▁EXPLAIN	-12.2323
▁FASHION	-12.2323
▁Friedland	-12.2323
▁GORBEAU	-12.2323
▁GUTENBERG	-12.2323
▁Genflot	-12.2323
▁IMMORTAL	-12.2323
▁INTERROGAT	-12.2323
▁Jehovah	-12.2323
▁Joubert	-12.2323
▁Jupiter	-12.2323
▁Kellermann	-12.2323
▁LARK	-12.2323
▁LICENSE	-12.2323
▁Laertius	-12.2323
▁MYRIEL	-12.2323
▁Maubuée	-12.2323
▁Nanterre	-12.2323
▁Nonetheless	-12.2323
▁OBEDIENCE	-12.2323
▁Ordinarily	-12.2323
▁POINT	-12.2323
▁POLICE	-12.2323
▁Pamela	-12.2323
▁Popincourt	-12.2323
▁Precentors	-12.2323
▁Pyrenees	-12.2323
▁Rambuteau	-12.2323
▁Rhine	-12.2323
▁Richelieu	-12.2323
▁SIMPLICE	-12.2323
▁SITUATION	-12.2323
▁SPRING	-12.2323
▁Shakespeare	-12.2323
▁Soignes	-12.2323
▁Switzerland	-12.2323
▁Sèvres	-12.2323
▁TOUSSAINT	-12.2323
▁Tranchelevent	-12.2323
▁VICTURNIEN	-12.2323
▁Victurnien	-12.2323
▁Vincent	-12.2323
▁WISDOM	-12.2323
▁WITHOUT	-12.2323
▁WOMAN	-12.2323
▁WORDS	-12.2323
▁aberration	-12.2323
▁adjutant	-12.2323
▁administrative	-12.2323
▁ameliorat	-12.2323
▁attenuating	-12.2323
▁austerity	-12.2323
▁auxiliar	-12.2323
▁baggage	-12.2323
▁calash	-12.2323
▁caryatid	-12.2323
▁cemeteries	-12.2323
▁chandelier	-12.2323
▁cistern	-12.2323
▁cobbler	-12.2323
▁collaborat	-12.2323
▁concrete	-12.2323
▁crazy	-12.2323
▁cuckoo	-12.2323
▁debate	-12.2323
▁deployed	-12.2323
▁destitute	-12.2323
▁detonation	-12.2323
▁dissipating	-12.2323
▁dowager	-12.2323
▁engraving	-12.2323
▁enterprise	-12.2323
▁epistle	-12.2323
▁esplanade	-12.2323
▁eyebrows	-12.2323
▁flavor	-12.2323
▁frenzied	-12.2323
▁frenzy	-12.2323
▁herbariums	-12.2323
▁hymn	-12.2323
▁idolatry	-12.2323
▁impatience	-12.2323
▁imperturbably	-12.2323
▁incalculable	-12.2323
▁indiscretion	-12.2323
▁infallibly	-12.2323
▁infernal	-12.2323
▁interlocutor	-12.2323
▁intrenchment	-12.2323
▁ivory	-12.2323
▁junior	-12.2323
▁lymph	-12.2323
▁marauding	-12.2323
▁mastodon	-12.2323
▁melodrama	-12.2323
▁ministry	-12.2323
▁occult	-12.2323
▁opulence	-12.2323
▁paroquet	-12.2323
▁parsonage	-12.2323
▁pediment	-12.2323
▁peevish	-12.2323
▁perplexed	-12.2323
▁perplexity	-12.2323
▁pivot	-12.2323
▁platform	-12.2323
▁precipitation	-12.2323
▁predicament	-12.2323
▁prettiest	-12.2323
▁prettily	-12.2323
▁primitive	-12.2323
▁programme	-12.2323
▁reanimated	-12.2323
▁reprisal	-12.2323
▁response	-12.2323
▁rhododendron	-12.2323
▁rotunda	-12.2323
▁sacristy	-12.2323
▁scientific	-12.2323
▁seashore	-12.2323
▁senior	-12.2323
▁sepulture	-12.2323
▁sequel	-12.2323
▁shrubbery	-12.2323
▁sojourn	-12.2323
▁somnambulism	-12.2323
▁suavity	-12.2323
▁subjugate	-12.2323
▁syllogism	-12.2323
▁symmetry	-12.2323
▁sympathetic	-12.2323
▁trivial	-12.2323
▁tumbril	-12.2323
▁tyrannies	-12.2323
▁unprotected	-12.2323
▁varieties	-12.2323
▁verdigris	-12.2323
▁vibration	-12.2323
▁vociferate	-12.2323
Erlon	-12.2323
▁Assembly	-12.2323
▁Babeuf	-12.2323
▁Camille	-12.2323
▁Corbeau	-12.2323
▁DARK	-12.2323
▁Grenoble	-12.2323
▁Léon	-12.2323
▁Montreuil	-12.2323
▁OWL	-12.2323
▁PARTI	-12.2323
▁Picton	-12.2323
▁Solomon	-12.2323
▁artificial	-12.2323
▁austerities	-12.2323
▁chafing	-12.2323
▁damnation	-12.2323
▁discomfort	-12.2323
▁epithet	-12.2323
▁faucet	-12.2323
▁grotesque	-12.2323
▁improbable	-12.2323
▁malediction	-12.2323
▁porcelain	-12.2323
▁régime	-12.2323
▁shrill	-12.2323
▁smoulder	-12.2323
▁spontaneous	-12.2323
▁submerged	-12.2323
▁territory	-12.2323
▁ATOM	-12.2323
▁CHILD	-12.2323
▁Charonne	-12.2323
▁DOUBL	-12.2323
▁Lenoir	-12.2323
▁composite	-12.2323
▁dessert	-12.2323
▁dimensions	-12.2323
▁dreadful	-12.2323
▁incrusted	-12.2323
▁mockery	-12.2323
▁mutton	-12.2323
▁shanty	-12.2323
▁MISFORTUNE	-12.2323
▁whistle	-12.2323
▁Destiny	-12.2323
▁POSSIBLY	-12.2323
▁Pavée	-12.2323
▁VERSES	-12.2323
▁chirping	-12.2323
▁efficacious	-12.2323
▁leprosy	-12.2323
▁physiologist	-12.2323
▁stunned	-12.2323
Artois	-12.2323
▁cherries	-12.2323
▁displeasure	-12.2323
▁gilding	-12.2323
▁lustrous	-12.2323
UGHT	-12.2323
▁EVENING	-12.2323
▁Lesgle	-12.2323
▁affront	-12.2323
▁coronation	-12.2323
▁deputy	-12.2323
▁merino	-12.2323
▁SAYING	-12.2323
▁chaplet	-12.2323
▁equipment	-12.2323
▁pendulum	-12.2323
▁supernatural	-12.2323
EXPECT	-12.2323
▁Belleville	-12.2323
▁estrangement	-12.2323
▁magnanimous	-12.2323
PREPARAT	-12.2323
TAIL	-12.2323
▁drummer	-12.2323
▁feudal	-12.2323
▁miscarried	-12.2323
▁pauperism	-12.2323
▁Aubry	-12.2323
▁concentric	-12.2323
▁cynicism	-12.2323
▁easier	-12.2323
▁insolence	-12.2323
▁tardy	-12.2323
▁utility	-12.2323
▁valuable	-12.2323
▁Passage	-12.2323
▁forbid	-12.2323
▁vacant	-12.2323
▁providing	-12.2323
▁MATTER	-12.2323
▁Otherwise	-12.2323
▁PONT	-12.2323
Adieu	-12.2323
▁fraternal	-12.2323
▁frivolous	-12.2323
▁compliance	-12.2323
▁website	-12.2323
▁imbue	-12.2323
▁ironmonger	-12.2323
▁senile	-12.2323
▁Ballets	-12.2323
▁SEWER	-12.2323
▁coppersmith	-12.2323
▁councillor	-12.2323
▁Renard	-12.2323
TURN	-12.2323
▁Boulanger	-12.2323
▁biscuit	-12.2323
▁tenacity	-12.2323
GRANDSON	-12.2323
▁locksmith	-12.2323
▁click	-12.2323
▁meteor	-12.2323
▁concord	-12.2323
▁monasteries	-12.2323
▁plough	-12.2323
▁strangling	-12.2323
▁Square	-12.2323
▁convalescence	-12.2323
▁quicksand	-12.2323
▁Sorbonne	-12.2323
▁bidding	-12.2323
▁talkative	-12.2323
▁THIRTY	-12.2323
▁SOUL	-12.2323
▁cowardice	-12.2323
▁invulnerable	-12.2323
DRESS	-12.2323
▁deference	-12.2323
▁ounces	-12.2323
▁striving	-12.2323
▁laconic	-12.2323
ebral	-12.2323
illegible	-12.2323
▁equity	-12.2323
▁arteries	-12.2323
▁tempting	-12.2323
▁firebrand	-12.2323
▁GOING	-12.2323
▁Grasse	-12.2323
▁Roche	-12.2323
▁vertical	-12.2323
▁scabbard	-12.2323
▁Fosse	-12.2323
▁copied	-12.2323
▁messenger	-12.2323
▁Prometheus	-12.2323
▁crises	-12.2323
▁rarity	-12.2323
▁DRINK	-12.2323
▁GARDEN	-12.2323
▁disastrous	-12.2323
HIND	-12.2323
▁PLAN	-12.2323
▁affable	-12.2323
▁capricious	-12.2323
▁dancing	-12.2323
▁frank	-12.2323
▁crypt	-12.2323
▁Sancy	-12.2323
▁conformed	-12.2323
▁nourishment	-12.2323
▁pleasant	-12.2323
▁narrator	-12.2323
▁rigging	-12.2323
▁bareheaded	-12.2323
▁Chapel	-12.2323
▁uncertainty	-12.2323
▁trump	-12.2323
▁novelty	-12.2323
▁Royalism	-12.2323
▁accurately	-12.2323
▁unhook	-12.2323
ète	-12.2323
▁criticism	-12.2323
▁inspection	-12.2323
▁LAW	-12.2323
▁agile	-12.2323
▁Comtesse	-12.2323
▁desirable	-12.2323
▁exaggerating	-12.2323
▁relationship	-12.2324
▁circular	-12.2324
▁gallantry	-12.2324
▁inherent	-12.2324
▁seal	-12.2324
▁HORSE	-12.2324
▁Palais	-12.2324
▁pronouncing	-12.2324
▁furies	-12.2324
▁limpid	-12.2324
▁weariness	-12.2324
▁Lamothe	-12.2324
▁REVE	-12.2324
▁collective	-12.2324
▁framework	-12.2324
▁jewellery	-12.2324
▁WEEP	-12.2324
▁improvement	-12.2324
▁LACO	-12.2324
▁Alten	-12.2324
▁Truth	-12.2324
▁bargain	-12.2324
OLUTION	-12.2324
uiot	-12.2324
▁reduction	-12.2324
▁selfish	-12.2324
▁cordiality	-12.2324
▁lilies	-12.2324
▁sorrowful	-12.2324
▁extension	-12.2324
▁contagion	-12.2324
ALITY	-12.2324
▁Spirit	-12.2324
▁preference	-12.2324
▁priesthood	-12.2324
▁arbit	-12.2324
▁intervening	-12.2324
▁functionary	-12.2324
▁supervision	-12.2324
Hello	-12.2324
▁reverted	-12.2324
▁Cannes	-12.2324
▁materialism	-12.2324
▁ponds	-12.2324
▁dropping	-12.2324
▁loop	-12.2324
▁1821	-12.2324
▁Fourier	-12.2324
▁prosecution	-12.2324
▁peepers	-12.2324
▁treatment	-12.2324
▁flagged	-12.2324
OFF	-12.2325
▁intentionally	-12.2325
▁panic	-12.2325
▁Issy	-12.2325
▁decreased	-12.2325
▁vanguard	-12.2325
▁visibly	-12.2325
▁insipid	-12.2325
▁piety	-12.2325
▁scorched	-12.2325
▁dreaded	-12.2325
▁slanting	-12.2325
▁bacon	-12.2325
▁Angelo	-12.2325
istress	-12.2325
▁Byron	-12.2325
▁persecution	-12.2325
SPECT	-12.2325
elma	-12.2325
▁reproved	-12.2325
▁truce	-12.2325
▁bloom	-12.2325
▁nabbed	-12.2325
▁blanched	-12.2325
▁millet	-12.2325
▁besieged	-12.2325
▁shaved	-12.2325
▁saddened	-12.2325
▁attested	-12.2325
PHIL	-12.2326
▁filched	-12.2326
▁LIB	-12.2326
▁netting	-12.2326
ETTES	-12.2326
▁BACK	-12.2326
▁choking	-12.2326
▁enchanted	-12.2326
▁lawsuit	-12.2326
▁frankly	-12.2326
▁sneer	-12.2326
▁recommence	-12.2326
ORY	-12.2326
▁MIR	-12.2326
▁elector	-12.2326
▁bloodshed	-12.2326
▁grinding	-12.2326
▁idiotic	-12.2326
▁semi	-12.2326
▁intrepidity	-12.2326
▁indulgent	-12.2326
▁sunny	-12.2326
▁huntsman	-12.2327
▁narrating	-12.2327
▁impertinent	-12.2327
▁oscillated	-12.2327
▁laundresses	-12.2327
▁medal	-12.2327
▁battlefield	-12.2327
▁conscientiously	-12.2327
▁sockets	-12.2327
▁gratuitously	-12.2327
▁Pierron	-12.2327
sburg	-12.2327
▁coping	-12.2327
▁Deum	-12.2327
▁insensible	-12.2327
▁bigoted	-12.2328
▁underlying	-12.2328
▁lance	-12.2328
▁solidity	-12.2328
▁aggravated	-12.2328
jean	-12.2328
▁regularity	-12.2328
▁Oratory	-12.2328
▁Helena	-12.2328
▁sharing	-12.2328
▁stake	-12.2328
▁Few	-12.2328
▁distraction	-12.2328
▁growl	-12.2328
▁whatsoever	-12.2328
▁Institute	-12.2328
▁gnash	-12.2328
▁irremediable	-12.2328
▁Corsican	-12.2328
▁immers	-12.2328
▁securely	-12.2328
▁TROU	-12.2328
Sec	-12.2328
▁plotted	-12.2329
▁cherishes	-12.2329
▁platter	-12.2329
▁Basil	-12.2329
▁noisy	-12.2329
▁illogical	-12.2329
INTH	-12.2329
▁Moses	-12.2329
▁Crown	-12.2329
▁WATER	-12.2329
▁HAPP	-12.2329
▁inundation	-12.2329
▁SK	-12.2329
▁alluding	-12.2329
▁animated	-12.2329
▁lurked	-12.2329
▁swimming	-12.2329
▁erased	-12.2329
▁stableman	-12.233
LING	-12.233
Alpes	-12.233
▁HAIR	-12.233
▁advancement	-12.233
▁degraded	-12.233
▁grip	-12.233
▁disinherited	-12.233
▁musician	-12.233
DGE	-12.233
OWS	-12.2331
▁assertion	-12.2331
?”—“	-12.2331
▁rabbit	-12.2331
85	-12.2331
aughty	-12.2331
Eau	-12.2331
▁imminent	-12.2331
▁executing	-12.2331
▁presided	-12.2332
▁mankind	-12.2332
▁Gros	-12.2332
▁Human	-12.2332
MENTS	-12.2332
▁viper	-12.2332
▁decamp	-12.2332
COAT	-12.2332
Cut	-12.2333
RAVAT	-12.2333
▁fraternized	-12.2333
▁battered	-12.2333
▁decent	-12.2333
▁articulated	-12.2333
ROOT	-12.2334
▁olive	-12.2334
grinder	-12.2334
▁explored	-12.2335
▁brightly	-12.2335
▁strongest	-12.2335
COMPL	-12.2335
▁violins	-12.2335
▁virginal	-12.2335
▁sentry	-12.2335
▁weighing	-12.2335
WHERE	-12.2335
▁flickering	-12.2336
▁upsetting	-12.2336
▁creep	-12.2336
▁hardness	-12.2336
▁casques	-12.2336
▁barbarians	-12.2336
▁sophisms	-12.2336
▁birthday	-12.2336
▁caissons	-12.2336
▁intrigues	-12.2336
▁utensils	-12.2336
▁cutlet	-12.2336
▁performances	-12.2336
▁likewise	-12.2336
▁insolent	-12.2336
▁meddle	-12.2337
▁cow	-12.2337
▁hereafter	-12.2337
▁omitted	-12.2337
WORKS	-12.2337
▁sewing	-12.2337
▁meshes	-12.2337
▁knitting	-12.2337
▁authorized	-12.2337
seizure	-12.2337
▁publishing	-12.2337
▁Hal	-12.2338
▁OPPO	-12.2338
▁undressing	-12.2338
▁characterized	-12.2338
▁feats	-12.2338
▁crushes	-12.2338
▁exhales	-12.2338
▁diminishes	-12.2338
▁reconstructed	-12.2339
Arbre	-12.2339
▁reception	-12.2339
▁skilfully	-12.2339
▁familiarly	-12.2339
▁quoted	-12.2339
▁refer	-12.234
▁Postes	-12.234
▁donned	-12.234
▁downright	-12.234
▁immodest	-12.234
▁aversion	-12.234
▁emanated	-12.234
▁consumed	-12.234
▁ditches	-12.234
LED	-12.234
▁praised	-12.2341
cicaille	-12.2341
WILD	-12.2341
▁madman	-12.2341
▁nobody	-12.2342
▁BEGIN	-12.2342
▁sharply	-12.2342
▁stooping	-12.2342
ITIES	-12.2342
▁astounding	-12.2342
▁twisting	-12.2343
▁customers	-12.2343
▁groaning	-12.2343
▁abjectness	-12.2343
BINE	-12.2344
▁quest	-12.2344
mbrace	-12.2344
▁confessor	-12.2345
▁aflame	-12.2345
▁topman	-12.2345
▁rosette	-12.2346
▁blossomed	-12.2346
▁buckled	-12.2346
▁vagueness	-12.2346
▁straying	-12.2346
▁assigned	-12.2347
nier	-12.2347
▁frowned	-12.2347
▁microscope	-12.2347
▁wholesome	-12.2347
▁faintly	-12.2347
▁smoothed	-12.2348
▁fireside	-12.2348
▁Thebes	-12.2348
PASSI	-12.2348
▁dazzle	-12.2348
▁pillaged	-12.2349
▁breaches	-12.2349
▁*	-12.2349
▁scolded	-12.2349
Open	-12.235
RECRUIT	-12.235
▁register	-12.235
▁notably	-12.235
bo	-12.235
▁Out	-12.235
▁shoot	-12.2351
▁sunset	-12.2351
▁babes	-12.2351
▁slaughter	-12.2351
▁independent	-12.2351
▁blushing	-12.2351
▁transit	-12.2352
▁swore	-12.2352
▁packet	-12.2352
▁flourishing	-12.2353
▁inhale	-12.2353
▁excesses	-12.2353
▁armorer	-12.2353
▁rustled	-12.2353
▁indifferently	-12.2354
BLOW	-12.2354
▁suppression	-12.2354
▁esteemed	-12.2355
▁solemnly	-12.2355
▁chemist	-12.2355
▁essence	-12.2355
▁anterior	-12.2356
▁verify	-12.2356
▁wisely	-12.2356
▁Generally	-12.2356
▁advocate	-12.2357
▁SOMET	-12.2358
▁doctrines	-12.2358
▁suppositions	-12.2359
incourt	-12.2359
▁contest	-12.236
▁assisting	-12.236
▁dashing	-12.236
▁cabin	-12.236
ueen	-12.236
▁caressed	-12.236
▁subordinates	-12.2361
▁representing	-12.2361
▁complained	-12.2361
▁Change	-12.2362
▁moulded	-12.2362
▁gait	-12.2362
▁intoxicate	-12.2362
▁ambushes	-12.2362
▁overthrowing	-12.2362
NDER	-12.2363
▁continuing	-12.2363
▁scorned	-12.2363
▁tatters	-12.2363
▁smack	-12.2363
▁corresponding	-12.2364
▁departing	-12.2365
▁conquering	-12.2365
▁lyrical	-12.2365
▁honey	-12.2365
▁arches	-12.2366
▁beforehand	-12.2366
▁dishonor	-12.2367
smith	-12.2368
APPEARS	-12.2368
▁Englishman	-12.2368
TILLE	-12.2368
▁pine	-12.2369
▁delayed	-12.2369
▁Until	-12.2369
▁pig	-12.237
▁jamb	-12.237
▁Thérèse	-12.237
▁complexion	-12.237
▁ungrateful	-12.237
▁conscript	-12.237
▁session	-12.237
▁Courage	-12.2371
YSTE	-12.2371
▁booths	-12.2372
▁acceptation	-12.2372
▁planned	-12.2372
▁union	-12.2372
▁flowing	-12.2373
▁distresses	-12.2373
▁Voltairian	-12.2373
▁Forest	-12.2373
▁specialty	-12.2373
▁fusion	-12.2374
▁active	-12.2374
▁exiled	-12.2374
Nor	-12.2374
GUE	-12.2374
▁rifled	-12.2374
▁endeavored	-12.2375
▁murdered	-12.2375
▁hospitality	-12.2375
▁governing	-12.2377
▁mère	-12.2377
▁complement	-12.2377
ouquet	-12.2378
▁practical	-12.2378
▁canton	-12.2378
▁torches	-12.2379
▁pounds	-12.238
▁Marne	-12.238
▁shakos	-12.2381
▁broader	-12.2381
▁disdained	-12.2382
▁puzzled	-12.2382
▁loungers	-12.2382
▁slippers	-12.2383
▁usefully	-12.2384
▁roared	-12.2384
▁bandages	-12.2385
▁behalf	-12.2388
UNS	-12.2389
▁coughing	-12.2389
VUL	-12.239
▁hoard	-12.239
igy	-12.239
▁converts	-12.239
▁irritat	-12.2392
▁NOS	-12.2392
▁pout	-12.2392
▁beastly	-12.2392
▁reflecting	-12.2392
▁narrower	-12.2393
▁warts	-12.2395
▁thereafter	-12.2395
MBAR	-12.2396
▁decks	-12.2396
▁SEEK	-12.2396
▁expands	-12.2397
▁trait	-12.2397
▁tracked	-12.2397
▁slabs	-12.2401
▁fol	-12.2401
▁glade	-12.2402
Amen	-12.2403
▁snatch	-12.2403
▁reproaches	-12.2405
▁Comme	-12.2405
▁ciphers	-12.2405
▁obscurely	-12.2405
▁clusters	-12.2406
▁talker	-12.2406
▁beer	-12.2406
▁hussars	-12.2406
▁milliards	-12.2407
▁excavations	-12.2407
▁representation	-12.2407
COUNTER	-12.2407
▁sponge	-12.2408
▁divinely	-12.2408
▁parasites	-12.2408
▁legends	-12.2408
▁inverse	-12.2409
YING	-12.2409
▁payments	-12.241
▁jewels	-12.241
liva	-12.2411
▁career	-12.2412
▁entrench	-12.2412
▁disown	-12.2413
▁mortals	-12.2416
▁twent	-12.2416
▁SO	-12.2416
▁burnt	-12.2417
▁digestion	-12.2418
▁pistoles	-12.2419
▁rattled	-12.2419
▁FOUND	-12.242
▁blindly	-12.2421
▁converse	-12.2421
▁engenders	-12.2424
IED	-12.2424
ied	-12.2424
▁digs	-12.2424
▁scraped	-12.2427
▁cracking	-12.2428
▁aspirations	-12.2429
▁fifteenth	-12.2429
▁ankles	-12.2429
▁recruits	-12.2429
▁concessions	-12.243
▁miasmas	-12.243
▁idlers	-12.243
▁appellations	-12.243
▁classed	-12.243
▁realm	-12.2432
▁grieved	-12.2432
▁prayed	-12.2432
▁crumbles	-12.2433
▁cynical	-12.2433
▁MISSE	-12.2433
AYE	-12.2434
▁profundit	-12.2435
▁emanate	-12.2436
▁scenting	-12.2436
▁capture	-12.2437
▁hasty	-12.2437
▁authenticat	-12.2437
▁FACT	-12.2439
▁cure	-12.2439
▁elevat	-12.2439
los	-12.244
▁Arc	-12.244
▁SLEEP	-12.2442
▁FOOT	-12.2442
▁EFFECT	-12.2443
▁PRISON	-12.2443
▁CHAMP	-12.2444
▁Behold	-12.2444
▁Speak	-12.2444
▁widower	-12.2445
▁MASTER	-12.2445
▁THEM	-12.2447
▁Royale	-12.2448
▁sighing	-12.2449
▁sweats	-12.245
▁End	-12.2451
vy	-12.2452
polis	-12.2452
▁intellect	-12.2453
▁exaggerations	-12.2454
▁chickens	-12.2454
▁associations	-12.2454
▁FATHER	-12.2454
▁defending	-12.2455
▁martyrs	-12.2455
▁murderers	-12.2456
▁reed	-12.2456
▁obvious	-12.2456
▁52	-12.2459
▁injustice	-12.2459
▁trained	-12.2459
▁Barra	-12.2462
▁ridge	-12.2463
▁skirmish	-12.2464
▁restores	-12.2465
▁abuses	-12.2465
▁beau	-12.2466
UFF	-12.2467
▁accepting	-12.2468
▁caring	-12.2469
▁economic	-12.247
▁lots	-12.2471
▁Jacobins	-12.2472
▁posters	-12.2473
▁oysters	-12.2474
bits	-12.2475
▁introduce	-12.2475
▁centimes	-12.2476
▁decrees	-12.2476
▁straighten	-12.2477
▁favored	-12.2478
▁sarcasms	-12.2478
▁determine	-12.2481
sive	-12.2483
▁heather	-12.2483
▁limbo	-12.2483
▁represents	-12.2484
▁workers	-12.2484
only	-12.2485
sse	-12.2486
sho	-12.2492
▁newly	-12.2492
▁soundly	-12.2492
▁tasted	-12.2492
ricket	-12.2493
▁trickle	-12.2494
▁dab	-12.2494
LAIR	-12.2497
▁painters	-12.2499
▁bandits	-12.2501
▁DESCEN	-12.2501
IVING	-12.2501
▁dais	-12.2501
▁sermons	-12.2501
▁paintings	-12.2502
▁shortly	-12.2502
▁grisettes	-12.2502
▁rebus	-12.2502
▁endure	-12.2503
▁billiards	-12.2503
lum	-12.2503
lon	-12.2503
▁Merl	-12.2505
▁wherewith	-12.2505
▁pope	-12.2506
connoi	-12.2506
▁froth	-12.2507
▁abb	-12.2509
▁swarms	-12.2509
▁MA	-12.251
▁illuminate	-12.2512
lessness	-12.2514
▁needles	-12.2518
▁forwarded	-12.2518
▁breeches	-12.2521
CULA	-12.2521
▁overcoat	-12.2522
▁brigands	-12.2522
ESP	-12.2523
▁departments	-12.2526
▁studying	-12.2527
▁GRAN	-12.2527
▁pest	-12.2528
▁UT	-12.253
▁Orleans	-12.2532
▁proportioned	-12.2534
dre	-12.2534
▁exclude	-12.2537
▁purchases	-12.2538
nous	-12.2539
▁hurls	-12.2539
▁explaining	-12.254
▁snapp	-12.2541
▁Lent	-12.2541
▁dogmas	-12.2542
▁shivers	-12.2542
▁colder	-12.2543
▁interesting	-12.2544
▁texts	-12.2545
▁officiat	-12.2546
▁proprietors	-12.255
▁methods	-12.2551
SOL	-12.2552
▁frontiers	-12.2553
ulary	-12.2557
▁bites	-12.2558
▁ruining	-12.2562
▁Py	-12.2563
places	-12.2563
Always	-12.2564
▁PLU	-12.2565
▁grumble	-12.2567
▁grains	-12.2569
▁Cas	-12.2572
▁paragraphs	-12.2574
▁ride	-12.2574
▁instructions	-12.2574
▁enjoyments	-12.2575
▁swallows	-12.2576
▁MAL	-12.2577
▁combated	-12.2584
lf	-12.2588
▁Fi	-12.2592
pickers	-12.2592
▁SLANG	-12.2593
▁brutes	-12.2594
▁operations	-12.2598
cum	-12.2599
▁“_	-12.2599
▁***	-12.26
▁arranges	-12.2602
”—	-12.2603
▁examines	-12.2603
▁usage	-12.2603
mas	-12.2604
▁INTE	-12.2606
ERING	-12.2606
CHA	-12.2607
▁fasting	-12.261
▁bas	-12.2612
Forever	-12.2612
coiled	-12.2614
appe	-12.2616
▁burns	-12.2617
RED	-12.2618
▁nowhere	-12.262
▁MOTHER	-12.262
can	-12.2624
▁HERO	-12.2624
▁syllables	-12.2624
▁obscured	-12.2624
▁evolution	-12.2625
▁prostitute	-12.2627
▁shells	-12.2627
▁Cau	-12.2628
▁abandons	-12.2629
ALL	-12.263
▁Envi	-12.2632
MARKS	-12.2633
▁whips	-12.2634
▁console	-12.2638
otte	-12.2639
▁clamors	-12.2644
▁mas	-12.2644
▁showers	-12.2654
mes	-12.2655
andel	-12.2656
lus	-12.2656
▁merchants	-12.2668
▁gutters	-12.2668
▁plots	-12.267
▁levie	-12.2671
▁knots	-12.2671
▁resists	-12.2672
▁lends	-12.2672
▁indicates	-12.2675
▁favorabl	-12.2675
▁gap	-12.2677
▁RECEIV	-12.2678
UET	-12.2681
mann	-12.2682
▁poorer	-12.2685
▁ski	-12.2685
▁increases	-12.2686
NDS	-12.2687
▁observes	-12.2693
▁newcomers	-12.2694
▁partitions	-12.2694
▁sl	-12.2699
La	-12.27
MET	-12.27
▁Del	-12.2705
▁frames	-12.2705
RICH	-12.2711
▁axes	-12.2715
▁ports	-12.2716
▁handfuls	-12.2717
fully	-12.2721
TRACTION	-12.2722
▁suits	-12.2727
▁bag	-12.273
▁PUT	-12.2734
aud	-12.2735
▁Ville	-12.2737
▁machines	-12.274
esses	-12.2744
ards	-12.2745
rdin	-12.2746
▁joll	-12.2748
LES	-12.2754
ires	-12.2758
▁impressions	-12.2767
▁flo	-12.2768
▁Art	-12.2769
▁games	-12.2769
CHE	-12.2771
iveness	-12.2777
po	-12.2778
▁jugs	-12.2778
▁DA	-12.278
▁tortures	-12.2781
▁savor	-12.2783
▁moat	-12.2784
▁diverse	-12.2784
▁requires	-12.2785
▁cable	-12.2787
AMA	-12.279
▁protests	-12.2791
▁cabriolets	-12.2791
▁resolutions	-12.2791
HEN	-12.2797
AFF	-12.2798
▁deck	-12.28
▁hitch	-12.2804
▁imm	-12.2814
▁SOME	-12.2814
cation	-12.2818
▁cyclop	-12.282
▁sprinkle	-12.2822
▁stoves	-12.2822
alities	-12.2827
▁redden	-12.2835
ONCE	-12.2835
etz	-12.2835
▁preserves	-12.2836
▁para	-12.2836
NGE	-12.2837
▁sorrows	-12.2837
▁splendors	-12.2839
▁dialogues	-12.2839
▁flu	-12.2843
horn	-12.2852
***,	-12.2855
ivulet	-12.2855
▁Red	-12.2859
▁confident	-12.286
eautiful	-12.286
▁hazard	-12.287
▁FORM	-12.287
THAN	-12.2873
▁alike	-12.2874
Te	-12.2879
UV	-12.288
▁rocks	-12.2881
▁authors	-12.2882
▁slumbers	-12.2887
AST	-12.29
▁extinguish	-12.2901
▁clot	-12.2901
owls	-12.2911
▁BLAC	-12.2914
▁fruits	-12.2914
SING	-12.2914
▁undress	-12.2922
▁lamps	-12.2925
▁rustl	-12.2926
▁sticks	-12.2926
▁sittings	-12.2933
stern	-12.2937
▁fan	-12.2937
eaux	-12.2938
imation	-12.2947
▁markets	-12.2947
▁TW	-12.2959
▁characters	-12.2961
▁journeys	-12.2971
▁customs	-12.2972
▁suis	-12.2973
▁Es	-12.2975
2.	-12.2978
▁crests	-12.2981
STE	-12.2984
3.	-12.2986
NCTION	-12.2988
SHI	-12.299
▁Pardi	-12.299
▁duck	-12.2993
▁qua	-12.2994
.1	-12.3011
▁Mil	-12.3012
▁domicile	-12.3013
▁mot	-12.3014
erry	-12.3021
▁rents	-12.3023
net	-12.3026
▁cannonade	-12.3044
▁chiefs	-12.3046
▁believer	-12.3054
cane	-12.3062
uded	-12.308
▁CAS	-12.308
rought	-12.3081
▁INC	-12.3086
fil	-12.3101
▁stoned	-12.3101
Dra	-12.3102
▁curés	-12.3104
ery	-12.3105
loading	-12.3106
▁prov	-12.3108
CLO	-12.3109
▁ira	-12.311
wise	-12.311
▁shor	-12.3113
RNING	-12.3122
sque	-12.3124
Am	-12.3131
enunciation	-12.314
CKED	-12.3142
▁PLA	-12.3145
▁gowns	-12.3148
▁Soon	-12.316
▁BILL	-12.3161
▁pots	-12.3165
wn	-12.3173
LOT	-12.3174
▁fraction	-12.3175
▁san	-12.3178
2,	-12.3185
▁carrie	-12.319
shots	-12.3215
▁declivit	-12.3215
CAL	-12.3221
▁Thence	-12.3223
▁ADOR	-12.323
▁regicide	-12.3237
uf	-12.3237
back	-12.3243
▁INDIG	-12.3247
▁Philosoph	-12.3252
▁scant	-12.3252
fort	-12.3253
CTED	-12.3256
▁habitua	-12.3262
aid	-12.3264
about	-12.3264
cked	-12.3271
▁compel	-12.3278
quid	-12.3283
▁HEAV	-12.3293
▁PERS	-12.3299
lid	-12.3302
range	-12.3305
▁da	-12.3308
▁sins	-12.3312
▁hum	-12.3313
ore	-12.3315
▁cre	-12.3317
▁Ob	-12.3319
▁Cast	-12.3321
Ma	-12.3328
▁exceptions	-12.334
▁founder	-12.334
▁hover	-12.3351
▁congratulat	-12.3353
▁bl	-12.3364
ntua	-12.3372
▁wag	-12.3374
clude	-12.3376
CHAIN	-12.3384
▁dock	-12.3386
TRACT	-12.3393
▁Ram	-12.3399
rung	-12.3412
mail	-12.3422
OT	-12.3424
ole	-12.3425
ean	-12.3436
▁Che	-12.3439
▁hovels	-12.3439
iety	-12.3447
▁lighter	-12.3447
▁AC	-12.3454
amed	-12.3454
▁Pu	-12.3456
iles	-12.3457
▁conc	-12.3466
▁Condemn	-12.3469
▁corridors	-12.3476
01	-12.3482
ning	-12.3484
▁rod	-12.3485
serted	-12.3487
ides	-12.3497
▁languages	-12.3501
iling	-12.3508
▁Ag	-12.3509
▁prim	-12.3514
NE	-12.3515
Leav	-12.3516
▁sow	-12.3516
▁tooth	-12.3517
▁huntsm	-12.3523
ight	-12.3557
rooted	-12.3559
RET	-12.3561
▁Cass	-12.3564
rier	-12.3566
uous	-12.3572
▁Cy	-12.3586
ley	-12.3587
▁horizons	-12.3592
▁devils	-12.3598
ants	-12.3599
▁Call	-12.3609
OUR	-12.3613
▁embroider	-12.3615
ANG	-12.362
▁restor	-12.3641
▁ironical	-12.3655
▁persecute	-12.3659
▁lid	-12.3669
▁demonstrate	-12.367
ala	-12.3674
▁metamorphos	-12.3687
mini	-12.3701
lé	-12.3703
UTE	-12.3721
j	-12.3723
AD	-12.3725
ose	-12.3726
ris	-12.3726
ook	-12.3732
▁Close	-12.3735
will	-12.3742
ural	-12.3765
sans	-12.377
mi	-12.3774
sort	-12.3777
▁subsist	-12.3777
Present	-12.3791
duct	-12.3798
▁GRO	-12.3812
▁wink	-12.3814
uses	-12.3826
ifying	-12.383
▁conjur	-12.3845
lets	-12.3846
av	-12.3849
▁CONS	-12.3873
▁trades	-12.3874
ROUS	-12.3874
round	-12.3878
▁Ve	-12.3899
za	-12.3901
▁philosophi	-12.3909
ury	-12.391
EMER	-12.3912
▁TREA	-12.3913
SELLE	-12.3924
▁civilizations	-12.393
?”_	-12.3932
▁wrongs	-12.3936
▁wart	-12.3936
▁design	-12.3941
▁estimate	-12.3942
▁ju	-12.3946
IONS	-12.3948
ASS	-12.3961
▁bores	-12.3966
UD	-12.3969
▁keys	-12.3974
rried	-12.3975
ings	-12.3975
▁Rap	-12.3987
RAS	-12.4019
▁Sad	-12.4019
cou	-12.4021
aged	-12.4031
ascal	-12.4036
anche	-12.4041
ugged	-12.4048
▁lar	-12.4062
▁col	-12.4068
ig	-12.4069
▁abolish	-12.4081
▁Brie	-12.4085
itted	-12.4086
OREST	-12.4088
THER	-12.409
▁bre	-12.4097
pelled	-12.4099
lled	-12.41
▁rhyme	-12.4101
abbed	-12.4102
curred	-12.4103
▁overturn	-12.4103
VIS	-12.411
▁Lise	-12.4112
▁differ	-12.4121
MER	-12.4132
▁necks	-12.4138
Antin	-12.4142
Com	-12.4147
▁jostl	-12.4162
▁smot	-12.4167
▁vac	-12.4169
▁butt	-12.4175
treating	-12.4175
iness	-12.4182
▁park	-12.4188
▁Hu	-12.4188
never	-12.4196
▁rep	-12.4219
▁dr	-12.4221
▁ver	-12.4222
▁1823.	-12.4224
▁inf	-12.4226
▁swo	-12.4244
liard	-12.4244
goul	-12.4254
v	-12.4255
▁ME	-12.4261
▁stepp	-12.4266
TAR	-12.4268
▁pla	-12.4269
ah	-12.4277
IDE	-12.4291
▁min	-12.4294
ache	-12.4297
AG	-12.4305
▁spokes	-12.4308
▁HIM	-12.432
fashioned	-12.4324
▁chok	-12.4325
rabou	-12.4331
oire	-12.4332
▁deserv	-12.4334
▁cro	-12.4336
▁betake	-12.4337
▁pique	-12.4337
▁squa	-12.4342
ell	-12.4342
OLE	-12.4351
▁bott	-12.4354
▁POW	-12.4369
NTO	-12.4369
▁Ev	-12.4369
ncy	-12.4373
ero	-12.438
eeling	-12.4386
vert	-12.44
bel	-12.4404
ents	-12.4407
read	-12.4409
▁rival	-12.4411
itary	-12.4414
▁err	-12.4424
▁expresse	-12.4432
right	-12.4446
▁broth	-12.4453
▁pant	-12.4456
LOW	-12.4457
▁hu	-12.4457
owed	-12.447
tin	-12.4474
mar	-12.4474
▁muffle	-12.4478
▁rubi	-12.4478
rose	-12.4484
illed	-12.4487
ETTE	-12.4493
▁evenings	-12.4495
ically	-12.4503
▁dominate	-12.4505
ization	-12.4509
abou	-12.4518
▁Mir	-12.4519
▁INDI	-12.453
▁aspire	-12.4551
lic	-12.4573
rap	-12.4586
MING	-12.459
▁sleeps	-12.4593
ssa	-12.4602
▁FE	-12.4608
5.	-12.4625
▁superintend	-12.4631
emoni	-12.4637
▁tops	-12.4643
▁exasperat	-12.4652
▁sol	-12.4653
mons	-12.4662
▁trou	-12.4664
▁pet	-12.4666
ral	-12.4674
▁dur	-12.4677
OND	-12.4681
LUC	-12.4681
▁Con	-12.47
pée	-12.4703
▁wills	-12.4704
▁trun	-12.4709
▁COR	-12.4713
▁coupl	-12.4717
▁tow	-12.4725
earing	-12.4726
locked	-12.4729
garden	-12.4741
▁etymolog	-12.4742
BLE	-12.4751
stor	-12.4752
footed	-12.4754
words	-12.4755
tened	-12.4756
▁Jacob	-12.4761
pan	-12.4768
ways	-12.4774
▁fascinat	-12.478
IGN	-12.4782
sued	-12.4791
came	-12.4796
▁cru	-12.4803
ja	-12.4803
steps	-12.4811
▁Te	-12.4817
▁rescu	-12.4821
urn	-12.4824
▁lighting	-12.4827
di	-12.4829
▁CAB	-12.4834
▁Vi	-12.4837
face	-12.4845
▁sash	-12.4845
▁exert	-12.4855
dame	-12.4858
cous	-12.4859
▁mar	-12.4863
▁“—	-12.4873
▁grin	-12.4879
STIC	-12.489
▁SCEN	-12.4904
uch	-12.4904
▁graft	-12.4918
▁apostles	-12.4927
▁flit	-12.4935
si	-12.4944
utu	-12.4946
▁WHEN	-12.4956
titude	-12.4959
▁ANY	-12.4963
thrusts	-12.4964
▁fal	-12.4966
op	-12.4971
tinies	-12.4974
ounded	-12.4977
gna	-12.4984
tatistic	-12.499
erie	-12.4998
▁sprinkl	-12.5011
TE	-12.5011
look	-12.5016
zone	-12.5017
gar	-12.5019
Viv	-12.5034
▁Cur	-12.504
half	-12.5042
black	-12.5049
gone	-12.505
may	-12.5054
while	-12.5076
▁Mal	-12.508
int	-12.5083
▁accumulat	-12.5089
water	-12.5091
BAB	-12.5104
▁Jacques	-12.5106
still	-12.511
tian	-12.5123
▁indiscreet	-12.5125
lac	-12.5128
Fantine	-12.513
lated	-12.5138
bot	-12.5138
alley	-12.5139
matter	-12.5146
porter	-12.5152
▁lu	-12.5153
feet	-12.5155
mo	-12.5166
▁Pir	-12.517
dri	-12.5188
cloth	-12.5189
rising	-12.5192
▁Pla	-12.5215
VERS	-12.5227
sewer	-12.523
TOR	-12.523
raised	-12.5232
storm	-12.5242
letter	-12.5247
▁slop	-12.5247
▁beginnings	-12.5248
tienne	-12.5249
carrier	-12.5249
▁reform	-12.5253
▁gra	-12.5258
ENCE	-12.5262
▁goods	-12.5263
Four	-12.5264
▁Fil	-12.5269
wheel	-12.5276
merchant	-12.5276
ombre	-12.5277
▁allude	-12.5277
olo	-12.5279
▁BET	-12.5283
▁En	-12.5287
pas	-12.5288
▁ancients	-12.529
fallen	-12.5294
holding	-12.5296
eat	-12.53
ante	-12.5302
ta	-12.5303
doctor	-12.5304
.2	-12.5305
lived	-12.5312
spring	-12.532
lane	-12.532
▁tight	-12.5321
tant	-12.5321
camp	-12.5327
CUP	-12.5327
wood	-12.5328
June	-12.533
ren	-12.5331
▁clog	-12.5332
PON	-12.5332
▁heredit	-12.5336
min	-12.5342
dated	-12.5343
▁ages	-12.5349
closet	-12.535
Sometimes	-12.5351
statesmen	-12.5351
Decidedly	-12.5354
flash	-12.536
Besides	-12.5361
Babet	-12.5362
spattered	-12.5366
servant	-12.5366
caps	-12.5368
Champ	-12.5375
Bonaparte	-12.5375
▁print	-12.5375
▁Put	-12.5376
Jesus	-12.5377
licited	-12.5378
Carry	-12.5378
▁provision	-12.5378
Temple	-12.5378
jou	-12.538
Victor	-12.5381
▁Soul	-12.5381
gy	-12.5382
House	-12.5383
class	-12.5383
Iron	-12.5383
brush	-12.5384
soil	-12.5387
breeches	-12.5389
Orleans	-12.539
tar	-12.539
citizen	-12.539
Bienvenu	-12.5391
sufficient	-12.5391
Thirty	-12.5393
▁pl	-12.5393
beadle	-12.5394
rattle	-12.5394
eye	-12.5396
LL	-12.5396
Could	-12.5397
philanthropist	-12.5398
Fabantou	-12.5398
Bon	-12.5398
Without	-12.5399
Eight	-12.5403
stroke	-12.5404
bone	-12.5405
Old	-12.5406
uncle	-12.5407
OUS	-12.5407
girls	-12.5408
limb	-12.5408
Whence	-12.5408
published	-12.5409
desk	-12.5412
Tell	-12.5413
▁stag	-12.5413
robbed	-12.5414
wheeled	-12.5415
Arc	-12.5418
▁introduc	-12.5419
setting	-12.5419
12	-12.542
blows	-12.5422
▁oppo	-12.5425
▁fecund	-12.5426
tool	-12.5426
ric	-12.5428
possessing	-12.543
▁COM	-12.5436
testable	-12.5436
hier	-12.5444
Bur	-12.5445
jours	-12.5447
Jeanne	-12.5449
cademician	-12.5449
mid	-12.5451
gang	-12.5452
▁detract	-12.5455
plates	-12.5456
▁Bois	-12.5462
weight	-12.5465
▁declar	-12.5479
▁snap	-12.5481
▁bé	-12.5484
Me	-12.5485
ny	-12.5489
handed	-12.5491
▁ev	-12.5493
rags	-12.5495
oc	-12.5495
▁inch	-12.5496
poles	-12.55
allow	-12.5501
▁Over	-12.5501
▁Camb	-12.5502
▁sup	-12.5503
▁y	-12.5512
zi	-12.5515
▁convert	-12.5531
▁precipitate	-12.5531
dé	-12.5532
ishness	-12.5533
UART	-12.554
▁ton	-12.5542
fidelity	-12.5542
▁emit	-12.5542
▁sti	-12.5544
▁Though	-12.5544
ARBLE	-12.5544
ology	-12.5554
hol	-12.5556
▁groan	-12.5556
▁abdicate	-12.5557
▁bandage	-12.5558
▁germ	-12.5558
▁acclamation	-12.556
▁ecclesiastic	-12.556
▁ambuscade	-12.556
▁nightingale	-12.556
▁sutler	-12.5561
▁implore	-12.5561
▁laurel	-12.5561
▁message	-12.5561
▁conjunction	-12.5561
▁bomb	-12.5562
▁atheist	-12.5563
▁disarrange	-12.5563
▁Philip	-12.5566
▁slipper	-12.5566
▁benediction	-12.5569
▁nymph	-12.5569
▁fissure	-12.5569
▁marshal	-12.557
▁mirage	-12.557
▁mouthful	-12.557
▁Gér	-12.557
▁Revolt	-12.5571
▁marauder	-12.5571
▁crater	-12.5572
▁grandmother	-12.5573
▁reinforcement	-12.5575
▁commissioner	-12.5575
▁shako	-12.5576
▁sparrow	-12.5576
▁document	-12.5576
▁folio	-12.5576
▁generation	-12.5577
▁upward	-12.5578
▁stump	-12.5578
▁fox	-12.5578
ise	-12.5578
▁cuirassier	-12.5578
▁calculation	-12.5578
▁afterward	-12.5581
▁plaything	-12.5581
sheets	-12.5582
▁remov	-12.5583
▁lounger	-12.5584
▁plume	-12.5585
▁commence	-12.5587
▁pap	-12.5589
▁Bru	-12.5592
▁comb	-12.5592
berg	-12.5596
urned	-12.5596
▁devote	-12.5599
▁BAR	-12.5601
Young	-12.5605
▁exterminat	-12.5607
▁demolish	-12.5609
▁seeker	-12.5609
pa	-12.561
▁rider	-12.561
ested	-12.5613
▁publish	-12.5613
▁interpret	-12.5615
▁flinch	-12.5616
▁trott	-12.5616
▁booth	-12.5617
laws	-12.5618
▁crouch	-12.5621
Soon	-12.5621
▁microscop	-12.5622
▁inevitabl	-12.5623
▁strand	-12.5623
iam	-12.5624
▁Nassau	-12.5626
▁applaud	-12.5628
▁college	-12.5628
▁sauce	-12.5628
▁plung	-12.5631
▁deceive	-12.5631
▁visitor	-12.5631
▁fastening	-12.5632
▁ambitio	-12.5633
▁contra	-12.5634
▁orienta	-12.5634
ault	-12.5635
▁monkey	-12.5637
▁apprehend	-12.5637
▁Titan	-12.5637
▁disquiet	-12.5638
▁dismay	-12.5638
▁elucidate	-12.5639
▁involve	-12.5639
▁uplift	-12.564
▁encumber	-12.564
▁spike	-12.564
▁select	-12.564
▁scrutin	-12.5641
▁interfere	-12.5641
▁exceed	-12.5641
▁fraternize	-12.5641
▁repute	-12.5642
broker	-12.5643
▁temper	-12.5643
▁elapse	-12.5643
▁sustain	-12.5643
▁improvise	-12.5644
▁associate	-12.5644
▁congeal	-12.5646
▁wick	-12.5646
▁displace	-12.5647
▁puzzle	-12.5647
▁blasphem	-12.5647
verbal	-12.5647
▁orthograph	-12.5649
▁necessit	-12.5649
▁assail	-12.5649
▁flour	-12.5649
▁felicit	-12.565
▁laundress	-12.565
▁doleful	-12.5651
▁annual	-12.5651
▁cautious	-12.5651
▁simultaneous	-12.5652
▁Fou	-12.5652
▁eager	-12.5652
▁convulsive	-12.5652
▁compose	-12.5652
▁extra	-12.5654
▁assassinate	-12.5654
▁avow	-12.5654
Emper	-12.5655
▁opaque	-12.5655
bourg	-12.5655
▁definite	-12.5655
▁jovial	-12.5655
*****	-12.5655
tricate	-12.5656
▁cherub	-12.5656
liberation	-12.5656
****,	-12.5656
BOURG	-12.5656
▁Clermont	-12.5656
Lazare	-12.5656
▁OBSERV	-12.5656
Inconstan	-12.5656
▁Rothschild	-12.5656
▁quincunx	-12.5656
AUSTERLIT	-12.5656
Brennus	-12.5656
Complete	-12.5656
Elsewhere	-12.5656
Esplanade	-12.5656
Esprit	-12.5656
Eustache	-12.5656
Mechtilde	-12.5656
Observatoire	-12.5656
Orléans	-12.5656
Possibly	-12.5656
Reflect	-12.5656
Wednesday	-12.5656
disembowelled	-12.5656
dismemberment	-12.5656
eneralissimo	-12.5656
incorruptibility	-12.5656
proxim	-12.5656
pudding	-12.5656
ueyras	-12.5656
▁Accident	-12.5656
▁Alvarès	-12.5656
▁Amelot	-12.5656
▁Ancona	-12.5656
▁Balizard	-12.5656
▁Beaulieu	-12.5656
▁Belgium	-12.5656
▁Bohemia	-12.5656
▁Boulonnais	-12.5656
▁Brumaire	-12.5656
▁Bérulle	-12.5656
▁CABUC	-12.5656
▁Carmagnole	-12.5656
▁Carrousel	-12.5656
▁Celtic	-12.5656
▁Chaffaut	-12.5656
▁Chastelar	-12.5656
▁Cherubin	-12.5656
▁Clairvaux	-12.5656
▁Cloister	-12.5656
▁Croulebarbe	-12.5656
▁Delorme	-12.5656
▁Flanders	-12.5656
▁Floréal	-12.5656
▁Garibaldi	-12.5656
▁Genesis	-12.5656
▁Gerbaud	-12.5656
▁Gladiator	-12.5656
▁Gothic	-12.5656
▁Gradually	-12.5656
▁Géborand	-12.5656
▁Hébert	-12.5656
▁INFLUENCE	-12.5656
▁Innocents	-12.5656
▁Isabeau	-12.5656
▁Kléber	-12.5656
▁Kylsom	-12.5656
▁Lacoste	-12.5656
▁Lamennais	-12.5656
▁Lawyer	-12.5656
▁Library	-12.5656
▁Longchamps	-12.5656
▁Lunenburg	-12.5656
▁MISTRESS	-12.5656
▁Maitland	-12.5656
▁Martyrs	-12.5656
▁Mechlin	-12.5656
▁Mediterranean	-12.5656
▁NEIGHBOR	-12.5656
▁POETRY	-12.5656
▁Patagon	-12.5656
▁Polignac	-12.5656
▁Ponceau	-12.5656
▁Poverty	-12.5656
▁Punchinello	-12.5656
▁Rheims	-12.5656
▁Roguet	-12.5656
▁Roquelaure	-12.5656
▁SERVICE	-12.5656
▁SURPRISE	-12.5656
▁Saragossa	-12.5656
▁Savigny	-12.5656
▁Sourdis	-12.5656
▁Surprise	-12.5656
▁Tartuffe	-12.5656
▁Thermidor	-12.5656
▁Transnonain	-12.5656
▁Villèle	-12.5656
▁Virtue	-12.5656
▁Wagram	-12.5656
▁Wisdom	-12.5656
▁Wrath	-12.5656
▁abundance	-12.5656
▁admonition	-12.5656
▁adversity	-12.5656
▁affluent	-12.5656
▁aggressive	-12.5656
▁amphictyons	-12.5656
▁analog	-12.5656
▁approval	-12.5656
▁approximati	-12.5656
▁aristocracy	-12.5656
▁astronomer	-12.5656
▁atrocity	-12.5656
▁avidity	-12.5656
▁bachelor	-12.5656
▁balconies	-12.5656
▁betrothed	-12.5656
▁blusterer	-12.5656
▁bridegroom	-12.5656
▁brigadier	-12.5656
▁burglar	-12.5656
▁calamity	-12.5656
▁calico	-12.5656
▁carbuncle	-12.5656
▁caricature	-12.5656
▁catacomb	-12.5656
▁cataract	-12.5656
▁celebration	-12.5656
▁chemical	-12.5656
▁chocolate	-12.5656
▁chorister	-12.5656
▁chronic	-12.5656
▁chrysalis	-12.5656
▁circumference	-12.5656
▁collisions	-12.5656
▁competition	-12.5656
▁connivance	-12.5656
▁convolvulus	-12.5656
▁crannies	-12.5656
▁crucible	-12.5656
▁dainty	-12.5656
▁dauphin	-12.5656
▁decapitated	-12.5656
▁deformities	-12.5656
▁diagnos	-12.5656
▁digression	-12.5656
▁diminutive	-12.5656
▁discharging	-12.5656
▁discontented	-12.5656
▁dissertation	-12.5656
▁egotistical	-12.5656
▁engross	-12.5656
▁episode	-12.5656
▁eunuch	-12.5656
▁grievance	-12.5656
▁hierarchy	-12.5656
▁idiom	-12.5656
▁impersonal	-12.5656
▁impoverish	-12.5656
▁imprudence	-12.5656
▁indefatigable	-12.5656
▁intermittences	-12.5656
▁interpolat	-12.5656
▁irresponsible	-12.5656
▁irrevocable	-12.5656
▁jabber	-12.5656
▁juxtaposition	-12.5656
▁kitten	-12.5656
▁lacquer	-12.5656
▁legitimist	-12.5656
▁lucrative	-12.5656
▁marmot	-12.5656
▁martingale	-12.5656
▁merchandise	-12.5656
▁millepeds	-12.5656
▁momentarily	-12.5656
▁munitions	-12.5656
▁negative	-12.5656
▁observatory	-12.5656
▁obsolete	-12.5656
▁ochlocracy	-12.5656
▁ordnance	-12.5656
▁orifice	-12.5656
▁orthodox	-12.5656
▁ostentation	-12.5656
▁paddock	-12.5656
▁paladin	-12.5656
▁passivity	-12.5656
▁pelisse	-12.5656
▁pettifogger	-12.5656
▁pettifogging	-12.5656
[...]
